<unk>	0
<s>	0
</s>	0
.	-3.03138
▁the	-3.1608
,	-3.25557
▁of	-3.60993
▁and	-3.82801
▁a	-3.84791
▁to	-3.95635
▁is	-4.03319
▁in	-4.17176
▁for	-4.79644
s	-4.8092
▁The	-4.89379
-	-4.93226
▁or	-4.93274
▁	-4.94075
▁are	-4.99492
▁that	-5.06944
▁(	-5.09178
▁as	-5.16689
▁you	-5.33035
▁on	-5.33469
▁with	-5.34496
▁from	-5.46121
▁can	-5.51074
▁it	-5.51205
'	-5.51266
)	-5.51748
▁by	-5.53465
▁an	-5.53791
▁be	-5.54187
▁your	-5.55978
:	-5.69729
▁1	-5.87988
▁at	-5.97762
▁have	-6.00236
▁A	-6.01855
▁2	-6.03182
▁which	-6.07473
▁not	-6.11443
▁was	-6.17725
▁will	-6.21648
▁It	-6.23888
▁this	-6.30535
▁also	-6.31005
▁more	-6.31325
▁one	-6.32028
▁In	-6.32306
).	-6.36975
ing	-6.37349
▁has	-6.37565
▁used	-6.38926
▁per	-6.40898
▁other	-6.43834
▁3	-6.4506
▁may	-6.46969
’	-6.47585
▁about	-6.48156
▁average	-6.51254
▁than	-6.51598
▁most	-6.52867
▁but	-6.54375
▁cost	-6.55216
▁name	-6.56816
▁This	-6.63224
▁they	-6.64604
▁all	-6.67942
▁up	-6.74932
▁into	-6.76353
▁their	-6.76902
▁I	-6.77804
▁body	-6.79586
▁when	-6.80067
▁between	-6.80687
/	-6.80905
;	-6.81725
▁if	-6.81903
▁blood	-6.82036
▁If	-6.83357
t	-6.83771
▁two	-6.84371
▁its	-6.85226
▁called	-6.89902
▁years	-6.90043
▁such	-6.91333
▁time	-6.91677
ed	-6.96465
▁year	-6.98541
▁first	-6.99078
▁use	-6.99858
▁4	-7.02026
▁some	-7.02786
▁water	-7.04524
),	-7.04917
▁people	-7.06944
▁only	-7.10037
▁who	-7.10129
▁For	-7.12283
▁system	-7.12318
▁out	-7.13425
▁many	-7.13846
▁do	-7.16961
▁over	-7.17245
▁known	-7.19865
▁You	-7.22474
▁cells	-7.22652
e	-7.22653
▁any	-7.23116
d	-7.23518
▁found	-7.23566
▁how	-7.26121
▁usually	-7.26394
▁make	-7.2649
▁form	-7.27931
▁been	-7.29409
▁like	-7.30139
▁there	-7.30473
▁common	-7.31484
▁so	-7.31764
▁made	-7.34594
▁type	-7.34852
▁after	-7.35014
▁get	-7.35744
▁through	-7.35779
▁days	-7.36689
▁should	-7.36787
▁often	-7.36961
▁high	-7.39087
▁much	-7.39433
▁around	-7.39744
▁where	-7.40793
▁long	-7.41162
▁these	-7.41327
▁very	-7.41396
▁day	-7.41541
▁what	-7.42023
▁each	-7.42087
▁different	-7.42129
▁need	-7.42146
▁disease	-7.42303
▁part	-7.42629
▁number	-7.45807
▁well	-7.45918
▁were	-7.47022
▁then	-7.47472
▁food	-7.48039
▁5	-7.48114
▁salary	-7.48155
▁cell	-7.48566
▁...	-7.4915
▁because	-7.49335
▁10	-7.49706
▁There	-7.51362
▁include	-7.52868
a	-7.52953
▁small	-7.53047
▁them	-7.53495
▁costs	-7.54775
▁example	-7.55061
▁range	-7.55125
▁take	-7.56036
▁cause	-7.56722
▁three	-7.56977
▁square	-7.57699
▁heart	-7.58586
▁work	-7.58645
▁new	-7.59339
▁same	-7.59575
▁would	-7.59607
▁temperature	-7.59779
▁minutes	-7.6065
▁hours	-7.60738
▁no	-7.61113
▁They	-7.61997
▁area	-7.62119
▁just	-7.62384
▁person	-7.63119
▁his	-7.64171
▁less	-7.64905
▁United	-7.64942
y	-7.65266
al	-7.65875
▁States	-7.67062
▁When	-7.68159
▁home	-7.69193
▁C	-7.69284
▁we	-7.69377
▁An	-7.69537
n	-7.69885
▁while	-7.69972
▁“	-7.70144
▁skin	-7.70407
▁types	-7.70663
S	-7.70794
▁age	-7.7209
▁both	-7.72109
▁does	-7.72617
▁pay	-7.72757
▁To	-7.72899
▁during	-7.73461
▁process	-7.73582
▁large	-7.73637
▁before	-7.75608
▁foot	-7.75775
▁world	-7.76553
▁our	-7.76585
▁amount	-7.77277
▁including	-7.7787
▁within	-7.78102
▁help	-7.79537
▁important	-7.80194
▁6	-7.81333
re	-7.82071
▁means	-7.82528
▁meaning	-7.82923
▁These	-7.83618
▁rate	-7.83869
▁way	-7.84288
▁state	-7.85025
ly	-7.85824
▁good	-7.86093
th	-7.86601
▁he	-7.87311
▁information	-7.87483
▁U	-7.87492
▁DNA	-7.87494
▁energy	-7.88528
▁–	-7.88545
▁being	-7.89624
▁muscle	-7.89678
▁hour	-7.89715
▁As	-7.89975
▁had	-7.90016
▁size	-7.90065
▁see	-7.90067
▁until	-7.91139
▁under	-7.91343
▁percent	-7.9178
▁term	-7.92152
▁life	-7.92787
▁using	-7.93178
▁feet	-7.93445
▁total	-7.93739
▁group	-7.941
or	-7.94295
▁level	-7.94399
▁must	-7.94792
▁back	-7.94842
▁New	-7.9493
▁symptoms	-7.95604
▁pain	-7.95709
▁B	-7.96552
”	-7.98051
▁low	-7.98112
▁plant	-7.9845
▁down	-7.98482
▁even	-7.98551
▁side	-7.98657
▁months	-7.98803
▁place	-7.98808
▁test	-7.99387
▁depending	-7.99609
▁best	-7.99793
▁degrees	-8.0078
▁American	-8.00904
▁species	-8.01569
▁those	-8.01848
▁normal	-8.02041
▁Some	-8.02936
▁20	-8.03017
▁health	-8.03022
▁period	-8.03088
▁Most	-8.03475
▁lower	-8.05167
▁family	-8.05327
▁typically	-8.05425
▁located	-8.05999
▁based	-8.06059
▁every	-8.0631
▁However	-8.06379
▁four	-8.0642
▁weeks	-8.06923
▁below	-8.07087
▁price	-8.07113
▁protein	-8.0725
▁caused	-8.073
ic	-8.07659
▁want	-8.07941
▁another	-8.07944
▁English	-8.08608
▁job	-8.09721
C	-8.10313
▁'	-8.10611
▁oil	-8.11273
!	-8.11541
▁right	-8.11673
▁infection	-8.11965
the	-8.12467
▁sugar	-8.1277
▁human	-8.13071
▁find	-8.13578
▁my	-8.13668
▁tissue	-8.13695
▁foods	-8.14063
▁bacteria	-8.1407
▁plants	-8.144
▁acid	-8.14594
▁word	-8.146
▁brain	-8.149
▁last	-8.15375
▁surface	-8.16085
▁30	-8.16107
▁baby	-8.16772
▁least	-8.16895
▁month	-8.16925
▁top	-8.16976
▁-	-8.17451
▁company	-8.17836
▁few	-8.17999
▁could	-8.18524
▁E	-8.18922
▁several	-8.1979
▁S	-8.20087
▁due	-8.20353
▁off	-8.20766
▁air	-8.21397
▁end	-8.21781
▁white	-8.21795
▁15	-8.21807
▁12	-8.22095
▁non	-8.22169
▁weight	-8.22205
▁heat	-8.22299
▁without	-8.22725
▁degree	-8.2289
▁higher	-8.23043
▁annual	-8.23276
▁business	-8.23322
▁pressure	-8.24061
▁experience	-8.25396
▁red	-8.25588
▁single	-8.25754
▁care	-8.25812
▁become	-8.25966
▁levels	-8.25983
▁set	-8.26045
▁know	-8.26073
▁data	-8.26514
▁available	-8.26869
▁second	-8.27007
▁T	-8.27013
m	-8.27164
▁causes	-8.272
▁above	-8.27296
▁commonly	-8.27305
▁million	-8.27762
▁keep	-8.27764
▁medical	-8.27775
▁meat	-8.27853
▁go	-8.28284
▁F	-8.28541
▁live	-8.29084
▁treatment	-8.29327
▁generally	-8.2944
▁specific	-8.29658
▁major	-8.29663
▁chemical	-8.29902
▁full	-8.30196
▁considered	-8.3025
▁her	-8.30486
▁7	-8.30665
▁main	-8.31114
▁8	-8.3159
▁given	-8.31993
▁How	-8.3231
▁Your	-8.32541
▁On	-8.32882
▁products	-8.32996
▁order	-8.33304
F	-8.33563
in	-8.34391
▁according	-8.34655
▁don	-8.34679
▁free	-8.35072
▁either	-8.35135
▁eggs	-8.35395
▁D	-8.35638
▁parts	-8.36468
▁start	-8.36621
▁natural	-8.36852
▁largest	-8.36952
▁now	-8.37193
▁miles	-8.37365
▁tax	-8.37545
▁--	-8.37762
▁&	-8.37834
▁vary	-8.37903
▁function	-8.37935
▁contains	-8.37988
▁result	-8.38368
▁early	-8.39052
▁might	-8.39196
▁oven	-8.39204
▁fat	-8.39492
?	-8.39536
▁1.	-8.39591
▁similar	-8.39777
▁forms	-8.39836
▁general	-8.40297
▁condition	-8.40579
▁But	-8.40596
▁One	-8.40604
▁light	-8.40658
▁times	-8.40686
ll	-8.40709
▁provide	-8.41031
com	-8.41132
▁certain	-8.42122
▁still	-8.42352
▁change	-8.42374
▁old	-8.42527
▁service	-8.42604
▁language	-8.42634
▁—	-8.42677
▁gas	-8.4303
▁mg	-8.43061
▁little	-8.43111
▁South	-8.43323
▁oxygen	-8.43817
▁own	-8.4409
▁women	-8.44105
▁approximately	-8.44189
▁children	-8.44263
▁sometimes	-8.44373
▁America	-8.44408
▁material	-8.4483
▁country	-8.44955
▁color	-8.4496
▁areas	-8.4555
▁income	-8.46005
▁point	-8.46208
▁popular	-8.46402
▁Earth	-8.46457
▁conditions	-8.46958
▁We	-8.47322
▁takes	-8.4738
▁too	-8.47424
▁100	-8.4774
▁week	-8.47896
▁makes	-8.48701
▁produce	-8.4879
▁following	-8.49308
▁produced	-8.49309
▁city	-8.49462
▁along	-8.49682
▁liver	-8.49687
▁comes	-8.49831
▁variety	-8.49841
▁school	-8.49877
▁five	-8.50764
▁occur	-8.50872
ve	-8.50926
▁occurs	-8.5109
▁project	-8.51099
▁half	-8.51176
▁since	-8.51384
▁contain	-8.5218
▁location	-8.52952
▁related	-8.53633
▁muscles	-8.5394
▁s	-8.53956
▁case	-8.53973
▁North	-8.54024
▁materials	-8.54201
▁basic	-8.54276
▁structure	-8.54337
▁names	-8.54784
▁increase	-8.54873
▁=	-8.55613
▁inches	-8.56484
o	-8.5671
▁region	-8.56956
▁treat	-8.57112
▁nerve	-8.57302
▁doctor	-8.57313
▁government	-8.5733
▁list	-8.57365
▁According	-8.57605
▁various	-8.57941
▁present	-8.58002
▁cancer	-8.58128
▁animals	-8.5852
▁length	-8.58527
▁[	-8.58538
▁He	-8.58677
▁associated	-8.58896
l	-8.58922
▁problems	-8.59088
▁All	-8.59228
▁together	-8.59293
▁P	-8.59345
▁child	-8.59494
▁car	-8.59593
▁highest	-8.59818
es	-8.60028
▁standard	-8.60284
▁source	-8.60293
▁power	-8.60408
▁uses	-8.60589
▁With	-8.60689
▁unit	-8.6078
▁longer	-8.60808
▁services	-8.60959
▁program	-8.61008
▁come	-8.61363
▁50	-8.61463
▁includes	-8.61548
▁states	-8.61663
▁m	-8.61773
g	-8.61937
▁short	-8.61947
▁chicken	-8.62103
▁depends	-8.62219
▁living	-8.62271
▁formed	-8.62309
▁check	-8.62526
▁give	-8.62531
▁fee	-8.6262
▁base	-8.62641
▁making	-8.62714
▁complete	-8.62873
▁median	-8.62906
▁charge	-8.63333
▁un	-8.63353
(	-8.63694
▁control	-8.63778
▁insurance	-8.63845
▁At	-8.64114
▁Many	-8.64764
▁add	-8.64838
to	-8.64899
▁salt	-8.64918
▁Definition	-8.64987
▁calories	-8.64989
▁hair	-8.65012
▁mean	-8.65478
▁cases	-8.65546
▁i	-8.65551
▁eat	-8.65631
▁production	-8.65757
▁M	-8.66107
▁great	-8.66118
▁daily	-8.66169
▁And	-8.66178
▁however	-8.66274
▁That	-8.66325
▁carbon	-8.66343
▁factors	-8.66507
▁left	-8.66654
▁near	-8.6675
▁salaries	-8.6684
▁required	-8.67008
▁especially	-8.67053
▁anywhere	-8.67386
▁money	-8.67447
▁infections	-8.67604
i	-8.67946
▁better	-8.67977
▁physical	-8.68167
▁bone	-8.68215
2	-8.6832
▁addition	-8.68542
▁population	-8.68613
▁local	-8.69265
▁$	-8.69553
▁sure	-8.69645
▁product	-8.70022
▁here	-8.70089
▁So	-8.7013
▁run	-8.70341
▁What	-8.70475
▁layer	-8.70705
▁look	-8.70738
▁25	-8.71136
▁risk	-8.71171
▁Answer	-8.71343
▁land	-8.71349
▁able	-8.71492
▁grow	-8.72032
▁animal	-8.72238
▁paid	-8.72367
▁having	-8.72401
▁things	-8.72481
▁account	-8.72583
▁individual	-8.7268
▁RNA	-8.73029
▁fish	-8.73042
▁open	-8.73055
▁value	-8.7312
▁enough	-8.7318
▁While	-8.73373
▁disorder	-8.73761
▁eye	-8.73964
▁patients	-8.73983
▁fiber	-8.74148
▁field	-8.74175
▁growth	-8.74315
▁results	-8.74331
▁line	-8.74525
▁rock	-8.74697
▁proteins	-8.74738
▁defined	-8.74804
▁done	-8.75073
▁born	-8.7532
▁put	-8.75351
▁After	-8.754
and	-8.75693
▁loss	-8.76095
▁2.	-8.76302
▁simple	-8.76414
on	-8.76603
▁dry	-8.76655
▁refers	-8.76668
er	-8.76683
r	-8.76744
▁room	-8.76763
▁effects	-8.76808
▁calcium	-8.77018
▁US	-8.77254
▁countries	-8.77264
▁she	-8.77326
▁among	-8.77559
▁systems	-8.7777
▁against	-8.77872
▁changes	-8.77935
▁possible	-8.78224
▁origin	-8.78233
▁gland	-8.78254
▁From	-8.78353
▁soil	-8.78358
▁healthy	-8.78415
▁dog	-8.7846
▁current	-8.78559
▁quality	-8.7865
▁show	-8.79311
▁cooking	-8.79321
▁others	-8.79478
▁wide	-8.79734
▁/	-8.79812
▁plan	-8.79837
▁though	-8.79837
▁diet	-8.80404
▁cold	-8.80497
▁earn	-8.8077
▁file	-8.80789
▁once	-8.80804
▁law	-8.80826
▁always	-8.80933
▁benefits	-8.8096
▁provides	-8.81065
▁green	-8.81088
▁whole	-8.81166
▁tree	-8.81265
c	-8.81588
▁date	-8.82006
▁six	-8.82018
▁hormone	-8.82087
▁code	-8.82101
referred	-8.82172
▁require	-8.82256
▁actually	-8.82262
▁earned	-8.82405
▁By	-8.82413
▁likely	-8.82558
▁40	-8.82629
▁hot	-8.82704
▁space	-8.82798
▁fluid	-8.82813
▁needs	-8.83104
▁study	-8.83293
▁H	-8.83358
▁molecules	-8.83474
▁vitamin	-8.83642
▁create	-8.84311
▁something	-8.84468
▁credit	-8.8447
▁additional	-8.84564
▁ranges	-8.84647
▁move	-8.84946
▁lot	-8.84996
▁fees	-8.85121
x	-8.85207
▁larger	-8.85254
like	-8.85307
▁9	-8.85328
▁whether	-8.85377
·	-8.85443
▁membrane	-8.85623
▁ago	-8.85645
▁history	-8.85675
▁Other	-8.85675
—	-8.8587
▁remove	-8.85944
▁going	-8.85977
▁useful	-8.86311
▁working	-8.86365
▁terms	-8.86396
▁t	-8.86567
▁virus	-8.86577
▁metal	-8.87016
▁next	-8.87222
▁minimum	-8.87443
▁away	-8.87496
▁helps	-8.87502
▁typical	-8.87644
▁site	-8.87713
▁fact	-8.8778
▁derived	-8.87798
▁pan	-8.87853
▁throughout	-8.87877
▁house	-8.87898
▁Australia	-8.88066
▁primary	-8.88099
▁inside	-8.88291
▁18	-8.88584
A	-8.8862
▁movement	-8.88821
▁installation	-8.88905
▁damage	-8.89159
▁upper	-8.89292
▁genetic	-8.89322
▁stomach	-8.89386
...	-8.89519
▁computer	-8.89598
▁Although	-8.89981
▁building	-8.89982
▁national	-8.90304
▁60	-8.90392
▁head	-8.90574
▁cook	-8.90648
▁later	-8.90833
▁diseases	-8.90938
▁gene	-8.91079
▁tissues	-8.91245
▁century	-8.91352
an	-8.91522
▁almost	-8.91523
▁km	-8.91651
▁receive	-8.91811
▁maximum	-8.91846
▁thyroid	-8.91858
▁needed	-8.91883
▁glucose	-8.91922
▁Best	-8.92205
▁Here	-8.92302
▁click	-8.92314
▁role	-8.92423
▁See	-8.92757
▁cover	-8.92832
▁May	-8.92915
▁Africa	-8.93169
▁leaves	-8.93382
▁lead	-8.93441
▁glands	-8.93445
▁words	-8.93763
▁Average	-8.93848
▁Latin	-8.93911
▁etc	-8.94298
▁roast	-8.94312
▁Greek	-8.94339
▁turn	-8.9439
▁medium	-8.94434
▁property	-8.94489
▁central	-8.94635
▁x	-8.94693
▁consists	-8.94705
▁hand	-8.94954
▁labor	-8.94988
▁support	-8.95083
▁ground	-8.95365
▁across	-8.95466
▁Also	-8.95874
▁directly	-8.95886
▁dose	-8.95955
▁page	-8.96019
▁think	-8.96133
▁estimate	-8.96276
▁hard	-8.96332
▁students	-8.96361
▁black	-8.96403
▁wall	-8.96416
▁smaller	-8.96441
▁re	-8.96475
▁rest	-8.96478
▁concrete	-8.96599
▁social	-8.96655
▁molecule	-8.96726
▁say	-8.96853
▁determine	-8.97087
▁surgery	-8.97126
▁prevent	-8.97395
▁answer	-8.97438
▁flow	-8.97693
▁rates	-8.97711
▁cut	-8.9786
▁course	-8.97917
▁organs	-8.98014
▁taken	-8.98072
▁doesn	-8.98085
▁grams	-8.98181
▁24	-8.98308
▁education	-8.98525
▁difference	-8.98599
▁humans	-8.98839
▁sea	-8.98987
▁center	-8.99088
▁nervous	-8.9909
▁female	-8.9916
▁complex	-8.99291
▁today	-8.99441
▁adults	-8.99614
▁us	-8.99804
▁Of	-8.99807
▁really	-8.99836
▁development	-8.99893
▁someone	-8.99912
▁Cost	-9.00123
▁R	-9.00126
▁vessels	-9.00198
▁return	-9.00526
▁definition	-9.00531
▁particular	-9.00531
▁works	-9.00612
▁north	-9.00633
▁severe	-9.00641
▁itself	-9.00788
▁industry	-9.00877
▁Meaning	-9.00925
▁me	-9.01044
▁wage	-9.01161
▁men	-9.0125
▁:	-9.01255
▁internal	-9.01354
▁York	-9.01509
▁kidney	-9.01593
▁report	-9.01682
▁+	-9.01708
▁responsible	-9.01729
▁State	-9.01768
able	-9.02197
▁organisms	-9.02566
▁French	-9.02693
▁Canada	-9.02722
▁14	-9.02878
▁egg	-9.02954
▁cholesterol	-9.03075
▁contact	-9.03113
▁reduce	-9.032
▁Place	-9.03419
▁G	-9.03514
▁c	-9.03571
▁National	-9.03617
▁O	-9.03634
▁strong	-9.0379
▁although	-9.03866
▁drug	-9.03953
▁outside	-9.04233
▁inflammation	-9.04389
▁immune	-9.04441
▁added	-9.04457
▁iron	-9.04568
▁urine	-9.04684
▁effect	-9.04743
▁Europe	-9.04745
▁lungs	-9.05015
▁activity	-9.05064
▁California	-9.05304
▁develop	-9.05398
st	-9.05686
▁reaction	-9.05721
▁middle	-9.05732
▁noun	-9.05772
▁mass	-9.05783
▁16	-9.059
▁said	-9.05926
▁south	-9.05939
▁seeds	-9.06059
▁position	-9.06463
▁milk	-9.06478
▁public	-9.06593
▁far	-9.0677
▁cycle	-9.06871
▁call	-9.06891
▁easy	-9.06933
1	-9.06988
▁method	-9.07024
▁affect	-9.07095
▁kind	-9.07272
▁First	-9.07458
▁tract	-9.07603
▁pregnancy	-9.07718
▁temperatures	-9.07842
▁seen	-9.07872
▁application	-9.07904
▁professional	-9.07999
▁University	-9.0811
▁prices	-9.08186
▁Click	-9.08425
▁records	-9.08483
▁patient	-9.08667
▁members	-9.08749
▁active	-9.09069
▁easily	-9.09132
▁allow	-9.09244
▁Asia	-9.09415
▁acids	-9.09466
▁joint	-9.09771
▁training	-9.10016
▁World	-9.10308
▁probably	-9.10319
▁rare	-9.10441
▁problem	-9.1048
▁elements	-9.10624
▁composed	-9.1075
▁class	-9.10766
▁simply	-9.10841
▁groups	-9.10857
K	-9.11258
▁post	-9.11329
▁let	-9.11396
▁varies	-9.11404
▁late	-9.11532
▁cannot	-9.11606
▁jobs	-9.11629
▁p	-9.1163
▁series	-9.11661
▁hormones	-9.11839
as	-9.1186
▁created	-9.11918
▁taking	-9.1208
▁starting	-9.12086
▁named	-9.1212
▁functions	-9.12246
▁People	-9.12352
▁office	-9.12358
▁sources	-9.12364
▁beans	-9.12491
▁liquid	-9.12563
▁island	-9.13087
▁pounds	-9.13106
▁necessary	-9.13124
▁mouth	-9.13168
▁deep	-9.13293
▁India	-9.13299
▁young	-9.13443
▁substance	-9.13467
▁spread	-9.13818
▁increased	-9.13864
▁widely	-9.14102
▁feel	-9.14432
▁market	-9.14501
▁expensive	-9.14764
▁network	-9.14917
▁adult	-9.1498
▁ability	-9.15047
▁apply	-9.15069
▁bones	-9.15119
▁L	-9.15172
▁close	-9.15395
▁11	-9.15411
▁companies	-9.15445
▁male	-9.15479
▁ways	-9.15522
▁allows	-9.15558
▁Use	-9.15689
▁reported	-9.15845
▁element	-9.16062
▁shape	-9.16079
The	-9.1632
▁original	-9.16428
▁rather	-9.16603
▁pre	-9.1661
us	-9.16694
4	-9.1692
▁real	-9.16941
▁units	-9.17021
▁personal	-9.17133
▁store	-9.17137
▁travel	-9.17265
▁research	-9.17323
▁third	-9.1735
▁bottom	-9.17538
▁death	-9.17571
▁special	-9.17677
▁City	-9.17729
▁N	-9.17742
▁cooked	-9.17819
▁pork	-9.17977
▁County	-9.1801
▁13	-9.18102
▁compound	-9.18112
▁became	-9.18119
▁Texas	-9.18138
time	-9.1818
▁hourly	-9.18231
▁design	-9.18251
▁birth	-9.183
▁beef	-9.18458
▁why	-9.18596
▁did	-9.18614
▁2013	-9.18711
▁therapy	-9.18895
▁measure	-9.18995
▁carry	-9.19004
is	-9.19112
▁upon	-9.19169
▁built	-9.19361
▁shows	-9.19389
▁°	-9.19409
▁choose	-9.19496
▁trees	-9.19555
▁Salary	-9.19573
▁Our	-9.19643
▁German	-9.19715
▁Island	-9.19786
▁direct	-9.19807
▁No	-9.20128
▁normally	-9.20281
▁recommended	-9.20343
▁serious	-9.20537
▁brown	-9.20608
▁covered	-9.20944
▁medicine	-9.21051
▁amounts	-9.21177
▁expect	-9.21205
▁environment	-9.21347
▁tests	-9.21544
▁2014	-9.21665
▁offer	-9.2174
▁combination	-9.21913
▁b	-9.22075
▁minerals	-9.22431
▁older	-9.22453
▁Add	-9.22488
▁season	-9.22667
▁member	-9.2272
▁appear	-9.22868
▁essential	-9.22906
▁fuel	-9.23356
less	-9.2342
▁organic	-9.23584
▁properties	-9.23841
▁Since	-9.23864
▁reach	-9.23917
▁divided	-9.23929
▁height	-9.23985
▁Its	-9.24026
▁speed	-9.24058
▁earth	-9.24305
▁response	-9.24498
also	-9.245
▁expected	-9.24538
▁learn	-9.24546
▁2015	-9.24665
▁access	-9.24843
▁21	-9.24874
▁tend	-9.24885
▁art	-9.24979
▁section	-9.25033
▁stay	-9.25159
▁requires	-9.25161
▁January	-9.25182
3	-9.2528
▁China	-9.25393
▁front	-9.25411
▁chronic	-9.25482
▁developed	-9.25521
▁fruit	-9.25642
▁big	-9.25676
▁extra	-9.2573
▁him	-9.25887
▁wood	-9.2594
▁involved	-9.26031
▁Act	-9.26053
▁regular	-9.26183
▁pound	-9.26447
▁War	-9.26537
▁effective	-9.26647
▁contract	-9.26877
▁n	-9.27022
▁solution	-9.27115
▁requirements	-9.27479
▁key	-9.27501
▁begin	-9.27554
D	-9.27578
▁drugs	-9.27701
year	-9.2774
▁planet	-9.27834
▁July	-9.27923
▁Once	-9.28032
▁enter	-9.28156
▁minute	-9.2824
▁alcohol	-9.28384
▁multiple	-9.28412
▁thing	-9.2844
▁build	-9.28487
▁My	-9.28553
▁fresh	-9.28599
▁disorders	-9.28645
▁primarily	-9.28668
▁reason	-9.2869
▁cup	-9.28717
▁modern	-9.2872
▁written	-9.28723
▁fever	-9.28733
▁designed	-9.29078
▁Because	-9.29113
▁distance	-9.29129
▁growing	-9.29239
▁spinal	-9.29301
▁basis	-9.29311
▁injury	-9.29469
▁vegetables	-9.29478
▁clear	-9.29491
▁nutrients	-9.29494
▁e	-9.29599
k	-9.29615
▁limit	-9.29634
▁mainly	-9.29729
▁man	-9.29782
▁organism	-9.2983
▁ancient	-9.29912
▁rocks	-9.30196
▁supply	-9.3026
▁ear	-9.30323
▁traditional	-9.30396
▁substances	-9.30457
▁processes	-9.30477
▁features	-9.3049
▁view	-9.30495
▁court	-9.30499
▁entire	-9.30512
of	-9.30516
▁sun	-9.30518
▁amino	-9.30529
▁sign	-9.30725
▁loan	-9.3073
▁More	-9.30782
▁management	-9.31052
ach	-9.31056
▁maintain	-9.31329
▁medication	-9.3144
▁matter	-9.31446
▁night	-9.31454
▁mixture	-9.31614
▁organ	-9.31689
▁website	-9.31783
▁eating	-9.32059
▁try	-9.32394
based	-9.32502
h	-9.32512
▁points	-9.32616
▁college	-9.32784
▁past	-9.32866
▁force	-9.32896
▁neck	-9.3295
▁legal	-9.33007
▁floor	-9.33029
▁portion	-9.33104
▁online	-9.33365
▁safe	-9.33458
▁included	-9.33592
▁syndrome	-9.33636
▁balance	-9.33679
▁phone	-9.33791
▁programs	-9.33868
▁procedure	-9.33939
▁question	-9.34071
▁exercise	-9.34167
▁offers	-9.34234
▁convert	-9.34235
▁relatively	-9.34523
▁mineral	-9.34584
▁listed	-9.34589
▁de	-9.3467
▁dioxide	-9.34676
▁slightly	-9.34688
▁2012	-9.34764
▁paper	-9.34911
▁Name	-9.35038
▁says	-9.35237
▁April	-9.35247
▁face	-9.35253
▁play	-9.35316
▁East	-9.3532
▁seven	-9.35347
▁interest	-9.3542
▁During	-9.3552
▁River	-9.3554
▁quite	-9.35546
▁Germany	-9.35603
▁weather	-9.35689
▁nucleus	-9.35716
):	-9.35751
▁K	-9.35765
▁looking	-9.3583
▁hydrogen	-9.35924
▁bit	-9.35983
▁walls	-9.36072
▁table	-9.36173
▁eyes	-9.36185
▁estimated	-9.3635
▁lowest	-9.36414
▁motor	-9.36438
▁thought	-9.36514
▁Indian	-9.36537
▁root	-9.36601
▁dogs	-9.36663
▁article	-9.36677
▁soft	-9.36677
▁buy	-9.3668
▁bring	-9.3672
▁glass	-9.36842
▁enzyme	-9.3685
▁Do	-9.36871
▁released	-9.36975
▁John	-9.36975
▁bacterial	-9.37043
▁separate	-9.37052
▁federal	-9.37059
▁About	-9.37096
▁cm	-9.37133
▁positive	-9.37165
▁|	-9.37186
▁native	-9.37265
▁chain	-9.37412
▁organization	-9.3749
▁symbol	-9.37601
▁compounds	-9.37609
▁lymph	-9.37674
▁financial	-9.37679
▁unique	-9.3788
▁act	-9.37911
▁•	-9.37985
▁completely	-9.38157
▁block	-9.38169
▁card	-9.38267
▁hold	-9.38281
▁highly	-9.38307
▁cavity	-9.38458
▁atoms	-9.38479
▁France	-9.38719
▁blue	-9.38732
▁already	-9.38792
▁genus	-9.38853
▁equal	-9.38983
▁individuals	-9.39002
▁refrigerator	-9.3903
▁fall	-9.39044
it	-9.39057
]	-9.39069
▁containing	-9.39077
▁thick	-9.39134
▁never	-9.39199
▁compared	-9.39392
▁vehicle	-9.39469
▁British	-9.39559
▁east	-9.39583
▁quickly	-9.39689
▁practice	-9.39724
▁getting	-9.39724
▁greater	-9.39772
▁fast	-9.39782
▁gives	-9.40079
▁device	-9.40197
▁Labor	-9.40214
▁warm	-9.40485
▁career	-9.40486
▁monthly	-9.40509
▁sold	-9.40685
▁chest	-9.40735
▁perform	-9.40841
▁Sea	-9.40924
▁roughly	-9.40961
▁d	-9.41029
▁yellow	-9.41258
▁refer	-9.41321
▁mostly	-9.41327
▁cord	-9.41328
▁applied	-9.41354
▁dollars	-9.41389
▁purpose	-9.4139
▁object	-9.41452
▁nature	-9.41546
▁again	-9.41579
▁thin	-9.4162
▁rich	-9.41642
▁began	-9.41645
▁majority	-9.4169
▁expenses	-9.417
▁dark	-9.41717
▁leave	-9.41726
▁love	-9.41837
▁west	-9.41914
▁X	-9.41937
▁search	-9.42136
▁Report	-9.42157
▁significant	-9.42334
▁provided	-9.42461
▁recent	-9.42517
▁instead	-9.42666
▁difficult	-9.42838
▁won	-9.42998
▁October	-9.43037
▁causing	-9.43076
▁steps	-9.43259
▁double	-9.43261
▁arteries	-9.43293
▁employee	-9.43303
▁stone	-9.43685
▁produces	-9.43776
▁transfer	-9.44026
▁1/2	-9.44138
▁via	-9.4421
▁content	-9.44216
▁President	-9.44286
▁select	-9.44288
▁record	-9.44302
▁structures	-9.44349
▁electrical	-9.44373
▁England	-9.44405
▁hepatitis	-9.44607
▁diabetes	-9.44648
▁meet	-9.44686
▁tell	-9.44738
▁subject	-9.44825
▁image	-9.44915
▁factor	-9.44916
▁potential	-9.44946
▁mind	-9.44968
▁step	-9.45253
▁install	-9.45266
▁culture	-9.45334
▁overall	-9.45357
▁installed	-9.45422
▁lines	-9.45441
▁book	-9.45547
▁sense	-9.45581
▁claim	-9.4569
▁respiratory	-9.45699
up	-9.45755
▁winter	-9.45936
▁f	-9.45938
▁naturally	-9.45963
▁plus	-9.46199
▁figure	-9.46484
▁version	-9.46487
▁summer	-9.46508
▁spend	-9.46511
▁film	-9.4654
▁anti	-9.46574
▁arthritis	-9.46646
▁bond	-9.46708
▁sodium	-9.46769
▁box	-9.46812
▁increases	-9.46997
▁affects	-9.47024
▁negative	-9.47045
▁signs	-9.47156
▁Windows	-9.47211
▁teeth	-9.47217
▁numbers	-9.47284
▁moving	-9.47318
▁payment	-9.47452
▁shown	-9.47505
▁June	-9.4768
se	-9.47775
▁break	-9.47835
://	-9.47939
▁limited	-9.47939
▁languages	-9.47975
▁nurse	-9.48004
▁address	-9.48029
▁science	-9.48078
▁self	-9.48093
▁sweet	-9.48117
▁artery	-9.48153
▁repair	-9.48169
▁2011	-9.48191
▁90	-9.48227
▁brand	-9.48279
▁stored	-9.48295
▁particularly	-9.48322
▁nearly	-9.48442
▁begins	-9.48487
▁taste	-9.48493
▁rule	-9.48632
▁climate	-9.48806
▁outer	-9.49103
▁sound	-9.49273
▁45	-9.49321
▁pool	-9.49372
▁pepper	-9.49539
▁workers	-9.4964
▁vaccine	-9.49755
▁options	-9.49837
▁worth	-9.49941
▁West	-9.50163
▁woman	-9.50208
▁understand	-9.50259
▁purchase	-9.50355
▁3.	-9.50392
▁baking	-9.50496
▁2010	-9.50554
▁war	-9.50555
▁community	-9.50691
▁presence	-9.50695
▁70	-9.5077
▁southern	-9.50896
▁regions	-9.51209
▁19	-9.51291
▁capital	-9.51497
▁characterized	-9.51498
▁carbohydrates	-9.51666
▁northern	-9.51689
▁Mexico	-9.51691
▁UK	-9.51792
▁came	-9.51837
▁option	-9.51994
▁17	-9.52216
ir	-9.52293
▁plate	-9.52389
▁colors	-9.52425
▁rice	-9.52444
▁*	-9.52459
▁W	-9.52587
▁butter	-9.527
▁stop	-9.52888
▁true	-9.52985
▁performed	-9.53198
▁heavy	-9.53368
▁visit	-9.53491
▁read	-9.53594
▁inner	-9.53736
▁engine	-9.53954
▁juice	-9.54013
▁copper	-9.54114
▁Japan	-9.54119
▁pass	-9.54141
▁action	-9.54182
▁component	-9.54188
▁activities	-9.54313
▁ingredients	-9.54387
▁employees	-9.54512
▁took	-9.54592
▁Florida	-9.54745
▁kidneys	-9.5475
▁international	-9.54921
▁software	-9.5508
▁flowers	-9.55134
▁digestive	-9.55147
▁transport	-9.55166
▁private	-9.55177
▁ice	-9.55239
▁Old	-9.55262
▁System	-9.55443
which	-9.5561
▁$1	-9.55629
▁nerves	-9.55641
▁raw	-9.55647
▁mother	-9.55736
day	-9.55766
▁European	-9.55849
▁release	-9.55935
▁magnesium	-9.55978
▁existing	-9.56057
▁formula	-9.56084
▁team	-9.56132
▁Symptoms	-9.56216
▁commercial	-9.56332
▁Irish	-9.56348
▁improve	-9.56362
▁resulting	-9.56401
▁ft	-9.56662
▁cat	-9.56737
▁African	-9.56789
▁Washington	-9.56823
▁bad	-9.56829
▁mild	-9.56886
▁idea	-9.56942
▁taxes	-9.56964
▁tuition	-9.57018
▁illness	-9.57068
▁received	-9.57191
▁waste	-9.57252
▁Ocean	-9.57276
▁crust	-9.57389
▁link	-9.57535
▁consider	-9.57544
▁established	-9.57554
▁equipment	-9.57636
▁deficiency	-9.57755
▁goes	-9.57836
▁Great	-9.57845
▁$100	-9.57867
▁Food	-9.57983
▁technology	-9.58089
▁lack	-9.58138
▁flavor	-9.5816
▁September	-9.58343
▁stress	-9.58348
▁beginning	-9.58429
▁smooth	-9.58467
▁depend	-9.58536
▁save	-9.58542
ch	-9.58627
▁surname	-9.58646
▁involves	-9.58657
▁starts	-9.58682
▁further	-9.58715
▁values	-9.58755
▁share	-9.58802
▁parents	-9.58815
▁model	-9.59013
▁described	-9.5904
▁Get	-9.5905
▁agent	-9.59153
▁title	-9.59168
▁score	-9.59244
▁cheese	-9.59256
▁electricity	-9.59372
▁describe	-9.59385
▁mid	-9.59415
▁g	-9.59432
▁components	-9.59499
▁IRA	-9.59573
▁therefore	-9.59578
▁enzymes	-9.59641
▁student	-9.59694
term	-9.59713
▁Step	-9.59781
▁ever	-9.59872
▁tropical	-9.59926
▁applications	-9.59944
for	-9.60073
▁International	-9.60131
▁famous	-9.60215
▁80	-9.60219
▁Pacific	-9.60257
▁Department	-9.60271
▁started	-9.60298
▁0	-9.6041
▁drive	-9.60594
▁viruses	-9.60763
▁flat	-9.60778
▁joints	-9.60792
▁theory	-9.60815
▁roof	-9.60872
▁Japanese	-9.60948
T	-9.61073
▁Fahrenheit	-9.61086
▁leading	-9.61152
▁billion	-9.6117
▁currently	-9.61194
▁tall	-9.61258
▁Bureau	-9.61299
▁believe	-9.61474
▁piece	-9.6149
▁rights	-9.61495
▁Both	-9.6154
▁200	-9.61576
▁held	-9.61632
▁March	-9.6164
▁solid	-9.61724
▁music	-9.61752
▁properly	-9.61762
▁scale	-9.61854
▁nose	-9.61873
▁bonds	-9.6213
▁performance	-9.62179
▁$2	-9.62206
▁net	-9.62233
▁Like	-9.62247
▁coast	-9.62352
▁connective	-9.62407
▁behind	-9.62427
▁Top	-9.62474
▁pieces	-9.62507
▁replace	-9.62778
▁clean	-9.62855
▁hemoglobin	-9.63154
▁Medical	-9.6332
▁attack	-9.63384
▁formation	-9.63402
▁bachelor	-9.63476
▁seed	-9.63488
▁Abuse	-9.63515
▁High	-9.63532
▁waves	-9.63575
est	-9.63618
▁slow	-9.63619
▁reactions	-9.63713
▁border	-9.63719
▁solar	-9.63816
▁35	-9.6383
▁protect	-9.63899
▁cats	-9.63997
▁girls	-9.63997
▁St	-9.64124
▁fibers	-9.64203
▁intestine	-9.64367
▁mountain	-9.64405
▁benefit	-9.64414
▁Central	-9.64453
▁wind	-9.64577
▁official	-9.646
▁Not	-9.64625
▁Spanish	-9.64764
▁measured	-9.64811
▁Home	-9.6482
▁Union	-9.64883
▁bladder	-9.65124
▁button	-9.65138
L	-9.65222
▁yourself	-9.65307
▁policy	-9.65341
▁places	-9.65349
▁frequently	-9.6535
▁fine	-9.65362
▁storage	-9.65383
▁sauce	-9.65424
▁placed	-9.65652
▁construction	-9.65675
▁plastic	-9.6586
▁passed	-9.65896
▁stock	-9.65991
▁details	-9.66059
▁votes	-9.66079
▁serve	-9.66083
▁town	-9.66125
▁eight	-9.66246
▁actual	-9.66261
▁appearance	-9.66265
▁count	-9.66348
▁thus	-9.66367
▁paint	-9.66496
▁examples	-9.66508
▁urinary	-9.66512
▁father	-9.66525
▁Now	-9.66577
▁sex	-9.66656
▁passport	-9.66688
▁breed	-9.66748
▁volume	-9.66751
▁plasma	-9.66762
▁strength	-9.6683
▁http	-9.66869
▁Health	-9.66886
▁ring	-9.6693
▁cities	-9.66961
▁families	-9.66965
▁anything	-9.66966
▁serving	-9.67006
▁Social	-9.67018
▁Italian	-9.67035
▁throat	-9.67055
▁follow	-9.67087
▁sub	-9.6712
▁ten	-9.67137
▁window	-9.67146
▁She	-9.67168
▁video	-9.67186
▁fatty	-9.67195
shaped	-9.67238
▁followed	-9.67264
B	-9.67335
▁500	-9.67349
▁sides	-9.67358
▁choice	-9.67374
▁avoid	-9.6755
▁·	-9.67568
▁items	-9.6763
▁drink	-9.67666
▁genes	-9.67679
▁sales	-9.67684
▁gets	-9.679
▁security	-9.67907
▁chart	-9.67934
▁$3	-9.67937
▁leg	-9.6794
▁infected	-9.67972
▁vitamins	-9.67992
▁Statistics	-9.68118
▁popularity	-9.68119
▁running	-9.6818
▁legs	-9.68202
▁Source	-9.68218
▁continue	-9.68239
▁spring	-9.68274
by	-9.68376
▁layers	-9.68735
▁guide	-9.68865
▁style	-9.68995
▁islands	-9.69075
▁potatoes	-9.6909
▁Find	-9.69163
▁$5	-9.69341
▁bread	-9.69362
▁equivalent	-9.69378
▁wave	-9.6945
▁boil	-9.6949
5	-9.69538
▁sheet	-9.69572
▁twice	-9.69596
such	-9.69623
▁atmosphere	-9.69634
▁removed	-9.69753
▁focus	-9.6976
▁stores	-9.69857
▁got	-9.69954
▁foreign	-9.69991
▁concentration	-9.70003
▁abnormal	-9.70057
▁feed	-9.70109
▁direction	-9.70188
▁chromosomes	-9.70212
▁House	-9.70333
▁Remove	-9.70352
–	-9.70429
▁Just	-9.70484
▁becomes	-9.70514
▁sleep	-9.70515
▁Chinese	-9.7053
▁o	-9.70537
▁300	-9.70605
▁bank	-9.70659
▁V	-9.70669
▁mix	-9.70708
O	-9.70787
▁tooth	-9.70795
▁girl	-9.70802
0	-9.70824
▁reasons	-9.70894
▁schools	-9.71022
▁sequence	-9.71101
▁reduced	-9.71192
▁grill	-9.71332
▁affected	-9.71397
▁Check	-9.71459
▁Security	-9.71464
▁attached	-9.71545
▁exchange	-9.71551
▁II	-9.71554
▁inch	-9.71612
▁final	-9.71638
H	-9.71704
▁ocean	-9.71753
▁branch	-9.71859
▁round	-9.72125
▁covers	-9.72133
▁excess	-9.72182
▁diameter	-9.72206
▁extend	-9.72361
▁tender	-9.72451
▁corn	-9.72459
▁song	-9.72526
▁gain	-9.72665
▁themselves	-9.72687
▁nursing	-9.72694
see	-9.72822
▁status	-9.72981
▁IRS	-9.72985
▁$10	-9.73054
▁setting	-9.73057
_	-9.73156
▁cash	-9.73235
p	-9.73245
▁runs	-9.73248
▁doing	-9.73269
▁connected	-9.73333
▁boys	-9.73334
▁charges	-9.73431
▁Let	-9.73448
▁annually	-9.73568
▁breast	-9.73584
▁western	-9.73611
▁Blood	-9.73666
▁tile	-9.73841
▁heating	-9.7386
▁cool	-9.73911
▁contribute	-9.73985
▁potassium	-9.73986
▁Service	-9.74023
▁currency	-9.74191
▁respiration	-9.74345
▁ask	-9.7453
▁oral	-9.74536
▁ready	-9.74559
ˈ	-9.74619
▁represent	-9.74681
▁charged	-9.74793
▁breathing	-9.74809
▁characteristics	-9.74925
▁event	-9.7493
].	-9.74937
▁lives	-9.74938
▁co	-9.74938
▁lies	-9.7517
▁wild	-9.75186
▁steel	-9.75221
at	-9.75268
▁Dr	-9.75305
▁goods	-9.75468
foot	-9.75532
▁$50	-9.75635
▁star	-9.75679
▁San	-9.75689
▁carries	-9.75692
▁party	-9.75807
en	-9.75913
▁clinical	-9.75966
▁28	-9.76133
▁veins	-9.76163
▁proper	-9.76164
▁nation	-9.76213
▁medications	-9.76327
▁reference	-9.76394
▁alone	-9.76416
▁extremely	-9.76461
▁dental	-9.76492
▁homes	-9.76528
▁dish	-9.76652
E	-9.76721
▁am	-9.76776
ry	-9.76785
▁treated	-9.76826
▁ratio	-9.76927
▁processing	-9.76995
▁remain	-9.77016
▁bill	-9.77021
▁flower	-9.77098
▁Even	-9.77143
▁stage	-9.77282
▁shoulder	-9.77357
▁beautiful	-9.77445
▁Internet	-9.77476
▁grains	-9.77494
▁testing	-9.77504
▁turkey	-9.77522
▁Note	-9.77531
▁distribution	-9.77533
▁swelling	-9.77779
▁yet	-9.77811
▁August	-9.77882
▁Italy	-9.77983
▁120	-9.78085
▁fats	-9.78261
▁initial	-9.78345
▁paying	-9.78601
▁eastern	-9.78637
▁couple	-9.78921
▁producing	-9.78932
▁everything	-9.79033
▁specifically	-9.79399
▁percentage	-9.79416
▁phase	-9.79442
▁continent	-9.79477
▁behavior	-9.79493
▁rise	-9.79612
▁screen	-9.80051
▁sell	-9.80324
▁studies	-9.80349
▁send	-9.80377
▁division	-9.80422
▁December	-9.80441
▁introduced	-9.80475
▁chromosome	-9.80507
▁fruits	-9.80579
▁replacement	-9.80711
▁identify	-9.80773
▁Before	-9.8088
▁text	-9.80926
▁copy	-9.81049
▁fully	-9.81083
▁opening	-9.81085
▁flag	-9.81203
▁lose	-9.81253
▁trade	-9.81256
▁Make	-9.81348
▁distinct	-9.81388
▁kept	-9.8141
▁providing	-9.81427
▁safety	-9.81512
▁river	-9.81526
▁Then	-9.81527
▁instance	-9.81548
▁General	-9.8159
▁issues	-9.81632
▁Sun	-9.8169
▁$20	-9.81723
▁Red	-9.81817
▁scientific	-9.81872
▁license	-9.81907
▁connect	-9.81975
▁measures	-9.82028
▁birds	-9.82106
▁fixed	-9.82301
▁atom	-9.82321
▁Congress	-9.82386
www	-9.82392
▁View	-9.824
▁synthesis	-9.82497
▁customer	-9.82598
▁starch	-9.82628
▁household	-9.82705
▁Americans	-9.82752
▁entry	-9.82805
▁periods	-9.82815
▁web	-9.82884
▁broken	-9.829
▁analysis	-9.82925
▁particles	-9.82965
▁master	-9.83019
▁Two	-9.83064
▁tea	-9.83073
▁core	-9.83245
▁God	-9.83317
▁knowledge	-9.83322
▁lung	-9.8337
▁differences	-9.8339
▁protection	-9.83445
▁character	-9.83525
▁White	-9.83571
▁garden	-9.83587
▁bleeding	-9.83609
▁purposes	-9.83617
▁exactly	-9.83626
▁November	-9.83688
▁rules	-9.83769
▁nodes	-9.84041
▁rain	-9.8407
▁stem	-9.84127
ous	-9.84265
▁mi	-9.84273
one	-9.8435
▁acts	-9.84639
▁grown	-9.84686
▁ensure	-9.8473
▁giving	-9.84736
▁map	-9.84737
▁combined	-9.8478
▁reports	-9.85044
▁drop	-9.85061
▁surrounding	-9.85101
▁abdominal	-9.85137
▁Water	-9.85182
from	-9.85196
▁boy	-9.85215
▁prior	-9.85231
▁budget	-9.85271
▁bodies	-9.85294
▁roots	-9.85316
ers	-9.85324
▁discovered	-9.85347
▁originally	-9.85407
▁immediately	-9.85544
▁knee	-9.85646
6	-9.85673
▁intake	-9.85729
▁meal	-9.85778
▁political	-9.85785
▁feature	-9.85806
▁classified	-9.8586
▁pair	-9.85928
▁cellular	-9.85947
▁recorded	-9.85964
▁machine	-9.86084
▁neurons	-9.86195
▁Association	-9.86228
▁exposure	-9.86228
▁determined	-9.86377
▁Kingdom	-9.86381
▁maintenance	-9.86405
▁mm	-9.86427
▁arm	-9.86483
▁kinds	-9.86567
▁Code	-9.86575
▁wages	-9.86688
▁22	-9.8685
▁Islands	-9.86957
▁game	-9.86958
▁Constitution	-9.86972
▁calculator	-9.87093
▁email	-9.87113
▁pink	-9.87224
▁$30	-9.87249
I	-9.87264
▁Common	-9.87362
▁soon	-9.87384
▁obtain	-9.87424
▁50%	-9.87466
▁London	-9.87475
▁Australian	-9.87481
▁Scottish	-9.8758
▁fire	-9.87688
▁cleaning	-9.87699
f	-9.877
▁files	-9.8778
▁powder	-9.8779
▁J	-9.878
▁memory	-9.87826
+	-9.87971
▁steam	-9.87973
▁23	-9.88032
▁freezer	-9.88072
▁evidence	-9.88077
▁Ireland	-9.88129
▁survey	-9.88186
▁ions	-9.88201
▁coat	-9.88218
▁granite	-9.88244
▁impact	-9.88418
▁greatly	-9.88455
▁tiny	-9.88662
▁wine	-9.88695
▁board	-9.88825
▁Virginia	-9.88862
▁Northern	-9.88962
b	-9.88967
▁spoken	-9.8902
▁looks	-9.8905
▁employer	-9.89115
▁radiation	-9.8919
▁sq	-9.89191
▁Be	-9.89216
▁viral	-9.89294
▁acute	-9.89331
▁hands	-9.89369
▁diarrhea	-9.89417
▁Park	-9.89499
▁relative	-9.89621
▁pot	-9.89665
▁letter	-9.89743
▁plays	-9.89857
▁parent	-9.89863
▁correct	-9.90027
▁nitrogen	-9.9009
▁worked	-9.90095
▁TV	-9.90126
▁purchased	-9.90248
▁future	-9.90253
▁chemicals	-9.90262
▁exist	-9.90319
▁James	-9.90332
▁Full	-9.90377
▁Keep	-9.90387
▁retirement	-9.904
▁ages	-9.90448
▁pregnant	-9.90451
▁influence	-9.90487
▁$4	-9.90531
▁Generally	-9.90731
▁Microsoft	-9.90772
▁questions	-9.90825
▁bathroom	-9.90882
▁Depend	-9.90905
▁finish	-9.91007
▁coverage	-9.91031
▁pure	-9.91045
▁forests	-9.91169
▁allowed	-9.91276
▁foil	-9.91307
▁except	-9.9146
▁pattern	-9.91469
ranging	-9.91505
▁remains	-9.91575
▁pronounced	-9.91577
▁resources	-9.91609
▁aluminum	-9.91611
▁antibodies	-9.91619
▁skills	-9.91652
▁whereas	-9.91695
▁grows	-9.91757
▁meters	-9.91781
out	-9.91811
▁pet	-9.91899
▁bowl	-9.92041
▁electrons	-9.92045
▁plans	-9.92089
▁metals	-9.92183
▁appears	-9.92193
▁Information	-9.92309
▁customers	-9.92397
▁mental	-9.92419
▁permanent	-9.92486
▁operating	-9.92495
▁Western	-9.92516
▁fabric	-9.92519
▁events	-9.92534
▁indicate	-9.92553
▁thousands	-9.92577
▁global	-9.92581
▁alternative	-9.92661
▁Bake	-9.92853
▁writing	-9.93036
▁beta	-9.9312
▁Hebrew	-9.93141
▁forming	-9.93261
▁Vitamin	-9.93276
▁believed	-9.93514
▁stand	-9.93597
▁vascular	-9.9364
▁previous	-9.93655
▁served	-9.93861
▁occurring	-9.93879
▁horse	-9.93885
▁document	-9.93905
▁mammals	-9.9393
▁story	-9.93956
▁transcription	-9.93984
▁external	-9.9399
▁adding	-9.94277
▁zone	-9.94314
▁category	-9.94331
▁recommend	-9.9435
▁perfect	-9.94355
▁specialized	-9.94358
▁package	-9.9439
▁serves	-9.94393
▁host	-9.94512
▁methods	-9.94518
▁Cook	-9.94526
▁contrast	-9.94529
▁driving	-9.94632
▁forest	-9.94686
▁engineering	-9.94725
▁thermometer	-9.94792
▁note	-9.94801
▁independent	-9.94824
▁removal	-9.94917
▁lay	-9.95024
▁males	-9.95036
▁structural	-9.95155
▁chloride	-9.95156
▁Facebook	-9.95218
▁pH	-9.95299
▁females	-9.95302
▁calculated	-9.95314
▁opposite	-9.95454
▁vision	-9.95475
▁developing	-9.9557
▁Sometimes	-9.95578
▁2000	-9.95616
▁indicates	-9.9568
▁mortgage	-9.95699
▁cross	-9.9575
▁depression	-9.95802
▁bird	-9.95805
▁devices	-9.95872
▁published	-9.96162
▁objects	-9.96173
▁Education	-9.96177
▁motion	-9.96185
▁issue	-9.96214
▁signals	-9.96257
▁frequency	-9.96287
▁10%	-9.9629
▁Republic	-9.96338
▁wedding	-9.96349
▁spine	-9.96353
▁mile	-9.96356
▁manager	-9.96418
▁signal	-9.96437
▁recently	-9.96507
▁February	-9.96548
▁broad	-9.96571
▁Re	-9.96572
▁gold	-9.96604
▁strand	-9.96627
▁ingredient	-9.96644
▁filing	-9.96763
▁decrease	-9.96902
▁Zealand	-9.97018
▁earlier	-9.97078
▁Middle	-9.97127
▁calculate	-9.97132
▁founded	-9.97186
▁consisting	-9.97203
▁dairy	-9.97423
▁Share	-9.97426
▁Civil	-9.97431
▁$15	-9.97455
▁electric	-9.97522
▁laws	-9.97575
▁relationship	-9.97617
▁sand	-9.97623
▁Federal	-9.9768
▁approved	-9.97935
▁foundation	-9.97969
▁represents	-9.98009
▁attention	-9.98053
▁military	-9.98075
▁Please	-9.98093
▁firm	-9.98238
ally	-9.98251
▁notice	-9.98264
▁King	-9.98294
▁regulate	-9.9845
▁cream	-9.98563
▁Standard	-9.98609
▁fit	-9.98618
N	-9.98628
▁pulse	-9.98654
nother	-9.98802
▁polymerase	-9.98895
▁varieties	-9.99004
00	-9.99115
▁county	-9.99121
▁constant	-9.99204
▁economic	-9.99204
▁onto	-9.9921
▁menu	-9.99215
▁Day	-9.99338
▁Ea	-9.99474
▁nuts	-9.99476
▁happens	-9.9953
▁garage	-9.99553
▁nuclear	-9.99579
▁grade	-9.99639
▁Using	-9.99676
▁Costs	-9.99678
▁lost	-9.99693
▁mechanical	-9.99701
▁registered	-9.99703
▁changed	-9.99803
▁$1,000	-9.99848
▁originated	-9.99985
▁Spain	-9.9999
▁faster	-9.99996
▁His	-10.0007
▁employment	-10.0012
▁Learn	-10.0012
▁School	-10.0019
▁Medicare	-10.0026
▁qualify	-10.0027
▁Bay	-10.0028
▁Amendment	-10.0029
▁walk	-10.0037
▁prepared	-10.0041
▁Roth	-10.0043
▁sample	-10.0049
ness	-10.0055
▁transmission	-10.006
▁metabolism	-10.0068
▁biological	-10.007
▁dependent	-10.0079
▁son	-10.0081
▁4.	-10.0085
▁deal	-10.0089
▁numerous	-10.0092
▁anxiety	-10.0096
▁Center	-10.0096
▁Part	-10.0099
▁150	-10.0101
▁Install	-10.0108
▁enjoy	-10.0114
▁earnings	-10.012
▁anemia	-10.0128
▁wear	-10.0141
state	-10.0141
▁magnetic	-10.0142
▁th	-10.0142
▁kids	-10.015
▁secondary	-10.0151
▁vegetable	-10.0181
▁Time	-10.0181
▁beats	-10.0191
▁pituitary	-10.0192
▁eaten	-10.0199
▁poor	-10.0201
▁instructions	-10.0202
....	-10.0203
▁ideal	-10.0203
ary	-10.0203
▁physician	-10.0215
▁sent	-10.0216
▁potato	-10.0218
▁band	-10.022
▁garlic	-10.0223
▁else	-10.0223
▁valve	-10.0223
▁Over	-10.0223
▁bar	-10.0229
▁weigh	-10.0233
▁comprise	-10.024
▁toward	-10.0242
nd	-10.0244
▁Roman	-10.0245
▁connection	-10.0251
▁kitchen	-10.0252
▁apart	-10.0255
▁supplies	-10.0257
▁Celsius	-10.0258
▁Lake	-10.0259
▁skeletal	-10.0259
▁resistance	-10.026
▁functional	-10.0263
▁soluble	-10.0268
▁Don	-10.0269
▁describes	-10.0272
▁tube	-10.028
dL	-10.0283
▁society	-10.0291
▁drinking	-10.0312
▁retail	-10.0316
▁tips	-10.0317
▁$500	-10.0319
▁cubic	-10.032
▁hospital	-10.0322
▁resting	-10.0333
▁Research	-10.0334
°	-10.0347
▁linked	-10.0354
▁USA	-10.0356
▁salmon	-10.0358
▁fridge	-10.0363
▁Today	-10.0364
▁density	-10.0366
▁neuron	-10.0368
▁marine	-10.0373
called	-10.0392
▁cartilage	-10.0393
▁capacity	-10.0393
▁significantly	-10.0395
▁oldest	-10.0398
▁vote	-10.0399
▁road	-10.0406
ion	-10.041
▁ribs	-10.0418
▁yearly	-10.042
▁closely	-10.043
▁delivery	-10.043
▁Atlantic	-10.0436
▁bed	-10.0439
▁powerful	-10.0441
▁towards	-10.0446
▁Examples	-10.0448
▁provider	-10.0453
▁feeling	-10.0454
▁assistant	-10.0454
▁ATP	-10.0463
▁Court	-10.0465
▁renal	-10.0471
▁1000	-10.0479
▁concept	-10.0488
▁pump	-10.0493
▁variable	-10.0501
▁went	-10.0504
▁remaining	-10.0509
▁pairs	-10.0511
▁owner	-10.0511
▁environmental	-10.0516
▁Air	-10.0518
▁Type	-10.0526
▁adjective	-10.0528
▁cardiac	-10.0531
▁absorb	-10.0534
▁moves	-10.0541
▁semi	-10.0548
▁incubation	-10.0562
▁History	-10.0566
▁driver	-10.0569
▁ones	-10.057
▁press	-10.0572
▁controlled	-10.0575
▁failure	-10.059
▁seems	-10.0597
▁dietary	-10.0597
▁appropriate	-10.0603
▁posting	-10.0605
▁isn	-10.0607
▁issued	-10.0607
▁consumption	-10.061
▁sit	-10.0612
▁Read	-10.0613
▁Britain	-10.0628
▁easier	-10.063
▁identified	-10.063
▁cytoplasm	-10.0631
▁Typically	-10.0633
▁branches	-10.0635
▁user	-10.0637
▁insulin	-10.0639
▁seem	-10.0648
▁phrase	-10.0661
▁prescription	-10.0664
▁h	-10.0666
▁completed	-10.0669
▁mobile	-10.067
▁phosphate	-10.0671
▁toxic	-10.0689
▁write	-10.069
▁chance	-10.0693
▁custom	-10.0694
▁eventually	-10.0698
ation	-10.0699
▁Company	-10.07
▁lining	-10.0701
▁Th	-10.0705
▁Georgia	-10.0709
▁offered	-10.072
▁speech	-10.0726
▁column	-10.0728
▁Edit	-10.0729
▁College	-10.073
▁yeast	-10.0734
▁diagnosis	-10.0736
▁played	-10.0758
&	-10.0766
▁Any	-10.0766
▁increasing	-10.0767
▁strain	-10.0777
▁2009	-10.0779
▁door	-10.0779
▁Overview	-10.0787
▁exact	-10.0788
▁usage	-10.0789
▁antibiotics	-10.0794
▁Select	-10.0795
▁r	-10.0799
▁vital	-10.0806
▁grass	-10.0806
▁Human	-10.0807
▁400	-10.0808
▁mountains	-10.0815
▁doses	-10.0821
▁2015.	-10.0823
▁ends	-10.0823
um	-10.0826
▁plates	-10.0826
▁closed	-10.083
▁leaf	-10.0832
▁extension	-10.0837
▁biggest	-10.0837
▁join	-10.0843
▁associate	-10.0848
▁grain	-10.085
▁volcano	-10.0852
▁wheat	-10.0853
▁talk	-10.0855
M	-10.0856
▁nine	-10.0856
▁minor	-10.0857
▁fence	-10.0857
▁images	-10.0859
▁figures	-10.087
▁fungi	-10.0874
▁Eastern	-10.0882
▁kilometers	-10.0888
▁tool	-10.0894
▁decision	-10.0903
▁message	-10.0904
▁William	-10.0906
▁v	-10.0906
▁26	-10.0916
*	-10.0918
▁bag	-10.092
▁stands	-10.0925
▁hearing	-10.0926
▁approach	-10.0929
▁Therefore	-10.0943
▁slowly	-10.0946
▁Co	-10.0947
▁Southern	-10.0948
▁mixed	-10.096
▁Post	-10.0969
▁graduate	-10.0978
▁lymphatic	-10.0978
▁babies	-10.0982
▁Office	-10.1005
▁brought	-10.1014
▁Hepatitis	-10.1018
ar	-10.1022
▁Or	-10.1026
▁Y	-10.1029
ng	-10.103
▁flows	-10.1031
level	-10.104
▁spent	-10.1051
▁fairly	-10.1051
▁somewhat	-10.1054
▁visible	-10.1058
▁everyone	-10.1059
▁syll	-10.1079
▁symptom	-10.1082
▁promote	-10.1089
▁facts	-10.1094
▁morning	-10.1096
u	-10.1101
▁yard	-10.1111
▁died	-10.1114
▁seconds	-10.1118
▁learning	-10.1121
▁steak	-10.1121
▁surgeon	-10.1123
▁planning	-10.1123
▁review	-10.1124
▁algae	-10.113
▁contractor	-10.1139
▁mRNA	-10.1143
▁processed	-10.1144
▁linear	-10.1147
8	-10.1154
▁payments	-10.1159
▁university	-10.1159
▁voice	-10.1166
▁sale	-10.1171
▁married	-10.1172
▁reaches	-10.1172
▁supplement	-10.1176
▁locations	-10.1191
▁equator	-10.12
▁target	-10.121
▁lived	-10.121
▁touch	-10.1218
▁app	-10.1225
▁arms	-10.1227
▁forces	-10.1229
▁dead	-10.1231
▁agreement	-10.1232
▁collection	-10.1233
▁manufacturing	-10.1234
▁Usually	-10.1235
▁kg	-10.1235
▁characteristic	-10.1236
▁lemon	-10.1236
▁collected	-10.1237
▁quick	-10.1237
▁Data	-10.1239
▁collagen	-10.124
▁follows	-10.1246
▁bases	-10.1255
▁Introduction	-10.1269
▁bloodstream	-10.127
▁creating	-10.1272
▁fill	-10.1276
▁abdomen	-10.1282
▁estimates	-10.1287
▁rent	-10.1295
▁moisture	-10.1306
▁psychology	-10.1308
▁bacterium	-10.131
▁transmitted	-10.131
▁wait	-10.1311
▁operation	-10.1315
▁stable	-10.1315
▁roasting	-10.1316
▁classes	-10.132
▁flu	-10.1327
);	-10.133
▁peak	-10.1335
▁facility	-10.1341
▁beyond	-10.1343
▁Yes	-10.1344
▁exposed	-10.135
▁port	-10.1351
▁mail	-10.1356
▁Care	-10.1361
▁shell	-10.1361
▁laboratory	-10.1378
▁eligible	-10.1381
▁accounts	-10.1386
G	-10.1392
▁bright	-10.1401
▁die	-10.1403
▁mark	-10.1413
▁Thomas	-10.1417
▁2007	-10.1418
▁cultural	-10.1432
▁schedule	-10.1445
▁largely	-10.1448
▁hip	-10.1449
▁container	-10.1449
▁carried	-10.1453
▁variation	-10.1453
▁battery	-10.1456
▁detect	-10.1457
▁detailed	-10.1458
▁Under	-10.146
▁moderate	-10.1464
▁Black	-10.1466
▁exam	-10.1466
10	-10.1475
▁texture	-10.1482
▁wet	-10.1484
▁$200	-10.149
▁dangerous	-10.1493
▁media	-10.1498
▁Pay	-10.1498
▁shorter	-10.1505
▁smallest	-10.1505
▁$150	-10.1513
free	-10.1517
▁consist	-10.1523
▁signed	-10.1527
ce	-10.153
▁Preheat	-10.153
▁cents	-10.1551
▁gift	-10.156
▁hatch	-10.1561
▁friends	-10.1562
▁estate	-10.1568
▁zinc	-10.1568
▁tongue	-10.1574
▁fields	-10.1577
▁procedures	-10.1581
▁replaced	-10.1583
▁fuels	-10.1599
▁Open	-10.1601
▁claims	-10.1601
▁frozen	-10.1608
▁MRI	-10.161
▁Alaska	-10.1613
▁Canadian	-10.1613
▁Thus	-10.1615
▁vein	-10.1615
▁BLS	-10.1619
▁recognized	-10.162
▁dried	-10.1621
▁decide	-10.1626
▁Army	-10.1647
▁led	-10.1652
▁obtained	-10.1652
▁healing	-10.1659
▁TB	-10.1659
▁prepare	-10.1661
▁picture	-10.1672
▁controls	-10.1679
▁reading	-10.1679
▁tip	-10.168
▁variant	-10.1682
▁falls	-10.1683
▁Business	-10.1684
▁employed	-10.1684
▁capillaries	-10.1686
▁accounting	-10.1699
▁gray	-10.17
▁Russia	-10.1707
▁understanding	-10.1709
▁aircraft	-10.1719
▁operations	-10.1719
▁Next	-10.172
▁multiply	-10.1723
▁zip	-10.1727
▁consume	-10.1738
▁limits	-10.1744
▁president	-10.1758
▁nationwide	-10.1758
▁contagious	-10.1759
▁worldwide	-10.176
▁$6	-10.1762
▁shrimp	-10.1762
not	-10.1764
▁disc	-10.1768
▁De	-10.1771
▁receives	-10.1788
▁cattle	-10.1797
▁marketing	-10.1798
▁Wikipedia	-10.1799
▁sites	-10.18
▁Take	-10.1805
▁Total	-10.1806
▁player	-10.1807
▁park	-10.1812
▁fossil	-10.1817
▁residents	-10.182
▁250	-10.1821
▁sugars	-10.1824
▁item	-10.1827
▁Form	-10.1831
▁sedimentary	-10.1833
▁opened	-10.1835
▁damaged	-10.1836
▁metabolic	-10.1837
▁prescribed	-10.1839
▁circle	-10.1843
▁stones	-10.1848
9	-10.1852
▁fan	-10.1868
▁civil	-10.1871
▁abundant	-10.1872
▁excellent	-10.1872
▁industrial	-10.1873
▁Google	-10.1881
man	-10.1883
▁orbit	-10.1901
▁fight	-10.1903
▁underlying	-10.1913
▁harmful	-10.1915
▁thickness	-10.1916
▁technician	-10.1916
▁hit	-10.1928
▁meanings	-10.1933
▁reached	-10.1933
▁2008	-10.1934
▁mature	-10.1939
▁trying	-10.194
▁orange	-10.1945
▁cough	-10.1951
▁situated	-10.1953
▁contraction	-10.1958
▁Carolina	-10.1961
▁remember	-10.1972
▁oxide	-10.1979
▁spending	-10.1982
▁75	-10.1985
▁extreme	-10.199
▁penalty	-10.1991
▁sets	-10.1993
▁television	-10.1998
▁$25	-10.2005
▁Description	-10.2005
▁licensed	-10.2006
▁leader	-10.2009
▁letters	-10.2013
▁sentence	-10.2018
▁settings	-10.203
▁nothing	-10.2034
▁former	-10.2038
▁meats	-10.2046
▁olive	-10.2049
▁BC	-10.2055
▁desert	-10.2072
▁Life	-10.2072
▁sports	-10.2073
le	-10.2074
▁database	-10.2076
▁lasts	-10.2077
paid	-10.2078
▁drivers	-10.2079
▁surgical	-10.2092
▁Enter	-10.2105
▁Mount	-10.211
▁Services	-10.211
▁Mail	-10.2117
▁sizes	-10.2123
▁exists	-10.2132
▁width	-10.2132
▁situation	-10.2132
hour	-10.2133
▁differ	-10.2144
▁therapist	-10.2157
▁anterior	-10.2157
▁flour	-10.2159
▁daughter	-10.2159
known	-10.2173
▁%	-10.2181
▁accurate	-10.219
▁membranes	-10.2195
▁Below	-10.2195
7	-10.2196
▁Science	-10.2203
▁Coast	-10.2214
▁pulmonary	-10.2214
inch	-10.2219
▁bean	-10.2222
▁lb	-10.223
▁agencies	-10.2231
▁tumor	-10.2236
▁5.	-10.2237
▁ranked	-10.2238
▁350	-10.2239
▁request	-10.2246
▁65	-10.2247
▁gram	-10.2252
▁drain	-10.2254
▁Origin	-10.2256
▁expression	-10.2259
▁lava	-10.226
▁raise	-10.2269
▁1,000	-10.2273
▁coming	-10.2275
▁friend	-10.2278
▁wife	-10.2278
▁investment	-10.2278
▁criminal	-10.2279
▁digestion	-10.228
including	-10.2282
P	-10.2284
▁Bacteria	-10.2287
▁treatments	-10.2287
▁tail	-10.2292
▁closer	-10.2293
▁track	-10.2297
▁scientists	-10.2297
▁gases	-10.2302
▁prominent	-10.2308
▁please	-10.2313
▁display	-10.2316
▁contribution	-10.232
▁ceiling	-10.232
▁books	-10.2321
▁giant	-10.2323
▁George	-10.2326
▁sensory	-10.2329
▁Installation	-10.2329
▁rid	-10.233
v	-10.2337
▁engineers	-10.2342
▁sort	-10.2345
▁Certified	-10.2356
▁Nurse	-10.2361
▁premium	-10.2361
▁composition	-10.2363
▁superior	-10.2365
▁blocks	-10.2368
▁carbohydrate	-10.2368
▁Long	-10.237
▁burning	-10.238
▁survive	-10.239
▁race	-10.2397
▁technique	-10.24
▁measurement	-10.2402
▁bind	-10.2405
▁snake	-10.2406
▁Cover	-10.241
ies	-10.242
▁asked	-10.2423
▁Unlike	-10.2435
▁critical	-10.2437
▁allergic	-10.244
▁residential	-10.2441
▁dominant	-10.2441
▁recipe	-10.2442
▁comparison	-10.2443
▁ship	-10.2444
▁sexual	-10.2446
▁Turkey	-10.245
square	-10.2469
▁Board	-10.2473
▁album	-10.2477
▁panel	-10.2479
▁centre	-10.2482
▁endocrine	-10.2483
▁volcanoes	-10.2483
▁bake	-10.2492
▁plane	-10.2496
▁prefer	-10.2506
▁load	-10.2514
▁puppy	-10.2517
▁painting	-10.2518
▁fatigue	-10.2525
▁bowel	-10.2526
becoming	-10.2529
▁folder	-10.253
▁exceed	-10.2532
▁airport	-10.2534
▁hear	-10.2535
▁filled	-10.2538
about	-10.2541
tic	-10.2545
▁shop	-10.2549
mm	-10.2555
▁painful	-10.2555
▁certification	-10.257
▁extended	-10.2577
▁nail	-10.2582
▁narrow	-10.2587
▁stages	-10.2596
▁divide	-10.2597
▁players	-10.2599
▁projects	-10.2601
▁earning	-10.2609
▁antibiotic	-10.2609
most	-10.261
▁demand	-10.2613
▁dishes	-10.2613
▁users	-10.2617
▁rash	-10.262
▁Grand	-10.2622
▁Is	-10.2622
▁Airport	-10.2623
▁l	-10.2629
▁planets	-10.2629
▁verb	-10.2631
▁filter	-10.2632
▁wireless	-10.2641
▁respectively	-10.2643
▁uterus	-10.2643
▁replication	-10.2644
▁silver	-10.2645
▁invented	-10.2651
▁expressed	-10.2655
▁certified	-10.2668
▁Lincoln	-10.2671
▁multi	-10.2678
▁pretty	-10.2687
▁circulation	-10.2688
▁Project	-10.2689
▁returns	-10.2691
rich	-10.2695
▁accepted	-10.27
▁burn	-10.2719
▁owners	-10.2746
▁smell	-10.275
▁Group	-10.2752
▁Hawaii	-10.2764
▁acre	-10.2764
▁cast	-10.2767
▁Number	-10.2769
▁onion	-10.277
▁cheaper	-10.277
▁poultry	-10.277
▁compensation	-10.2772
▁desired	-10.2776
▁biology	-10.2779
▁surrounded	-10.278
▁suggest	-10.278
▁loans	-10.2786
▁patterns	-10.2793
▁poisoning	-10.2795
▁ham	-10.2797
▁31	-10.2804
▁synthetic	-10.2806
▁supplements	-10.281
▁usual	-10.281
▁Ohio	-10.2812
▁ethnic	-10.2816
▁goal	-10.2816
▁32	-10.2818
▁autoimmune	-10.2821
▁Normal	-10.2823
▁communication	-10.2825
▁domain	-10.2832
▁agents	-10.2833
▁heal	-10.2846
▁techniques	-10.2847
▁treating	-10.2853
▁experienced	-10.2854
▁Up	-10.2854
▁disability	-10.2856
▁Early	-10.2862
▁barrier	-10.2867
▁slab	-10.2869
▁tension	-10.2872
▁Asian	-10.2872
▁raised	-10.2876
▁colon	-10.2882
▁2)	-10.2887
▁Rights	-10.2888
▁involve	-10.2898
R	-10.2899
▁pancreas	-10.29
▁molecular	-10.2902
▁preparation	-10.291
▁48	-10.2912
▁radio	-10.2915
▁output	-10.2917
▁diem	-10.2918
▁doctors	-10.292
▁Page	-10.2923
▁scan	-10.2923
▁happen	-10.2929
▁businesses	-10.2939
▁Photo	-10.2942
▁quarter	-10.2945
▁Making	-10.2945
▁(1	-10.2952
▁holds	-10.2953
▁tab	-10.2956
▁oils	-10.297
▁professionals	-10.2972
usually	-10.2973
ne	-10.2977
ft	-10.2978
▁huge	-10.2985
▁cortex	-10.2987
▁Energy	-10.2991
▁agency	-10.2992
old	-10.2996
▁rarely	-10.2998
▁station	-10.2998
▁forward	-10.2998
reducing	-10.2999
▁spot	-10.3002
50	-10.3006
▁hundreds	-10.301
▁split	-10.3013
▁Set	-10.3014
▁metres	-10.3023
▁formal	-10.3025
▁anyone	-10.3029
▁rib	-10.3032
▁moved	-10.3033
▁windows	-10.3038
▁Though	-10.3048
▁receptors	-10.3048
▁assume	-10.3049
▁photo	-10.3067
▁domestic	-10.307
ized	-10.3072
▁sunlight	-10.3072
related	-10.3072
▁courses	-10.3086
mg	-10.3096
▁officer	-10.3108
▁weakness	-10.3113
▁successful	-10.3113
▁command	-10.3116
▁Mediterranean	-10.3118
▁vinyl	-10.312
▁vomiting	-10.3124
▁assets	-10.3124
▁deposit	-10.3124
▁capable	-10.3127
▁attacks	-10.3128
▁younger	-10.313
▁headache	-10.313
▁Medicine	-10.3131
▁Causes	-10.3132
▁deer	-10.3134
--	-10.3143
▁Parkinson	-10.3155
▁unusual	-10.3165
▁gross	-10.3166
▁100%	-10.3173
▁sounds	-10.3178
▁Inc	-10.3181
▁breath	-10.3185
▁Tax	-10.3188
▁Example	-10.319
▁leads	-10.3191
▁Images	-10.3196
▁engineer	-10.3203
▁origins	-10.3205
▁Amazon	-10.3205
▁deck	-10.3208
▁cars	-10.322
▁undergraduate	-10.3223
12	-10.3223
▁generation	-10.3225
▁helpful	-10.3228
▁coal	-10.3231
▁covering	-10.324
▁breakdown	-10.3251
▁continental	-10.3251
▁longest	-10.3266
4,	-10.3267
▁Mountains	-10.3268
▁heard	-10.3272
▁separated	-10.3275
▁academic	-10.328
▁deposits	-10.3283
▁patent	-10.3285
▁w	-10.3292
▁debt	-10.3298
▁staff	-10.3301
▁27	-10.3305
▁changing	-10.3308
▁absorbed	-10.3308
▁manufactured	-10.3309
▁compare	-10.3316
▁pull	-10.3317
ose	-10.3319
..	-10.3325
▁movements	-10.3334
▁plenty	-10.3341
▁eukaryotic	-10.3342
▁belongs	-10.335
▁executive	-10.3356
▁revenue	-10.3358
▁cups	-10.3363
▁precipitation	-10.3372
▁statement	-10.3405
▁switch	-10.3406
▁owned	-10.3408
▁duct	-10.3416
▁positions	-10.342
▁personality	-10.3432
▁Every	-10.3434
▁adopted	-10.3435
▁temperate	-10.3435
▁Family	-10.3435
▁index	-10.3436
▁Greece	-10.3436
▁Only	-10.3454
▁muscular	-10.3463
▁rough	-10.3473
▁cable	-10.3475
▁crystals	-10.3478
▁Salaries	-10.3479
▁told	-10.3481
▁36	-10.3493
▁background	-10.3499
▁voltage	-10.3509
▁train	-10.3513
▁shall	-10.3516
▁frequent	-10.3521
onfidence	-10.3526
▁NOT	-10.3527
org	-10.3528
▁bile	-10.3535
▁Heart	-10.354
▁Institute	-10.3543
▁bound	-10.3552
▁Age	-10.3552
▁sulfate	-10.3558
▁PC	-10.3566
▁Empire	-10.3569
▁vs	-10.3576
▁Zip	-10.3579
▁description	-10.3588
▁pages	-10.359
▁profit	-10.3596
▁earns	-10.3603
ive	-10.3605
▁aid	-10.3608
▁straight	-10.3613
▁span	-10.3614
▁averages	-10.3618
▁entity	-10.3618
▁Mac	-10.3619
▁refund	-10.3623
▁dance	-10.3625
▁combine	-10.3625
▁tools	-10.3626
▁roll	-10.3628
▁Non	-10.3631
▁nucleotides	-10.364
▁profile	-10.3645
▁trial	-10.365
▁Administration	-10.3661
▁Columbia	-10.3662
▁Egypt	-10.3662
▁noted	-10.3678
▁carbs	-10.3679
▁requirement	-10.3679
▁loose	-10.3685
▁spelling	-10.3686
▁speaking	-10.3686
▁Rating	-10.3686
▁Go	-10.3689
▁keeping	-10.3698
▁edge	-10.3699
▁List	-10.3702
▁rapidly	-10.371
▁Dictionary	-10.371
▁economy	-10.3711
▁Program	-10.3714
▁intended	-10.3715
▁advanced	-10.3718
▁pigment	-10.3721
▁religion	-10.3728
▁sperm	-10.3729
▁Manager	-10.3735
▁rose	-10.3736
▁patio	-10.3753
▁marrow	-10.3754
▁perhaps	-10.3766
▁fourth	-10.3774
▁corporation	-10.3779
▁dollar	-10.3782
▁insects	-10.3784
▁generic	-10.3788
▁mode	-10.3791
▁contracts	-10.3794
▁spleen	-10.3801
▁kilometres	-10.3808
▁hole	-10.3814
▁managers	-10.3815
▁infectious	-10.3815
▁passes	-10.3822
▁instrument	-10.3823
▁extent	-10.3823
▁homeowners	-10.3823
▁colleges	-10.3824
▁percentile	-10.3824
▁yogurt	-10.3826
▁success	-10.3832
▁wax	-10.3838
▁wish	-10.384
▁conduct	-10.3844
▁speak	-10.3854
▁1960	-10.3855
▁breeds	-10.3862
▁hundred	-10.3866
▁stroke	-10.3872
▁adrenal	-10.3877
▁posterior	-10.3881
▁Baby	-10.3883
▁Well	-10.389
▁siding	-10.3894
▁express	-10.3894
▁ounce	-10.3896
▁Census	-10.3897
▁complexity	-10.3897
▁Management	-10.3898
▁Instead	-10.3898
▁milligrams	-10.3906
▁Foods	-10.3917
▁basement	-10.3926
▁kill	-10.3932
▁frame	-10.3937
▁industries	-10.3944
.)	-10.3945
▁fungus	-10.3945
▁excessive	-10.3946
▁humidity	-10.3946
▁nausea	-10.3947
▁context	-10.3949
▁LDL	-10.3956
▁extract	-10.3967
▁millions	-10.3973
▁terminal	-10.3974
▁clay	-10.3978
▁goals	-10.398
▁$10,000	-10.399
▁tiles	-10.3992
▁Native	-10.4
▁hire	-10.4002
▁29	-10.4003
▁vet	-10.4007
▁possibly	-10.4009
▁shares	-10.4015
▁session	-10.4016
▁crime	-10.4017
▁links	-10.4021
▁suggests	-10.4027
▁k	-10.4031
▁vinegar	-10.4032
▁organelles	-10.4033
▁gallon	-10.4041
▁angle	-10.4041
▁esophagus	-10.4044
▁swimming	-10.4045
▁volcanic	-10.4051
▁chains	-10.4051
▁HIV	-10.4052
▁USDA	-10.4058
▁coli	-10.4061
▁destination	-10.4071
▁boiling	-10.4071
▁peripheral	-10.408
▁trip	-10.4085
▁watch	-10.4088
▁ADVERTISEMENT	-10.409
▁rises	-10.409
▁mentioned	-10.4095
▁partial	-10.4101
▁moon	-10.4101
▁codes	-10.411
▁inherited	-10.4111
▁crown	-10.4132
▁meter	-10.4138
▁distributed	-10.4142
▁operate	-10.4154
ity	-10.4155
▁$300	-10.4157
▁lbs	-10.4159
▁electron	-10.4162
▁attorney	-10.4162
▁classic	-10.4169
▁interior	-10.417
▁Battle	-10.417
▁urethra	-10.4182
▁Put	-10.4188
▁diaphragm	-10.4191
▁Brazil	-10.4193
▁entirely	-10.4195
▁photos	-10.4207
▁joined	-10.4207
▁$5,000	-10.4208
▁$3,000	-10.4208
▁judgment	-10.4212
▁magma	-10.4215
▁exception	-10.4216
▁rental	-10.4218
▁Credit	-10.4219
with	-10.4227
▁turned	-10.423
▁selling	-10.4231
▁kWh	-10.4232
▁soy	-10.4233
▁variations	-10.4236
▁Pennsylvania	-10.4237
▁Concrete	-10.4237
▁shaped	-10.4244
ting	-10.4249
▁develops	-10.425
▁symbols	-10.425
▁distinguish	-10.4253
▁secrete	-10.4266
▁benchmark	-10.427
▁tank	-10.427
▁Star	-10.4274
▁snakes	-10.4277
▁saw	-10.4277
▁nuclei	-10.4283
▁police	-10.4287
▁$8	-10.4289
▁modified	-10.4295
▁define	-10.4299
▁Robert	-10.4316
▁wire	-10.4329
▁explain	-10.4329
▁battle	-10.4333
▁encyclopedia	-10.4337
▁Children	-10.4338
▁corporate	-10.4344
▁Z	-10.4348
▁PDF	-10.435
”.	-10.4355
▁sensitive	-10.436
▁warts	-10.4361
▁department	-10.4364
▁1.5	-10.4379
▁Bank	-10.4388
▁matrix	-10.4389
▁statistics	-10.4395
▁basically	-10.4395
▁ball	-10.4396
▁shower	-10.4398
▁feeding	-10.4399
▁chemistry	-10.4408
▁holding	-10.4412
▁officers	-10.4421
▁GPA	-10.4422
▁uncommon	-10.4427
▁lots	-10.4428
▁cultures	-10.443
▁meant	-10.4433
▁rapid	-10.4434
▁beauty	-10.4435
▁Good	-10.444
▁surfaces	-10.4441
▁$7	-10.4442
▁absorption	-10.4442
▁Low	-10.4444
▁vehicles	-10.4445
▁colour	-10.4453
te	-10.4463
▁rivers	-10.4479
▁reproduction	-10.4486
▁Gaelic	-10.4491
▁nearby	-10.4491
▁enable	-10.4492
▁standards	-10.4493
▁Related	-10.4498
▁dense	-10.451
▁wrist	-10.4516
▁filed	-10.4516
edit	-10.4517
▁Start	-10.4517
▁hotel	-10.452
▁discuss	-10.452
▁lamb	-10.4522
▁coffee	-10.4526
▁fly	-10.4527
▁server	-10.4532
▁mitochondria	-10.4539
▁funds	-10.4543
▁Plan	-10.4549
▁rank	-10.4551
▁tubes	-10.4554
▁fewer	-10.4569
▁ultrasound	-10.457
'.	-10.4572
▁wrong	-10.4573
▁mantle	-10.4575
▁nurses	-10.4578
▁mph	-10.4591
▁aspects	-10.4596
▁clearly	-10.4597
▁familiar	-10.4606
▁functioning	-10.4606
▁favorite	-10.4617
▁dosage	-10.4618
▁examination	-10.4618
▁marked	-10.4626
▁spray	-10.4626
▁moist	-10.4628
▁1/4	-10.463
▁Massachusetts	-10.464
ever	-10.464
▁plural	-10.4642
▁continuous	-10.4646
▁technical	-10.4648
▁consumed	-10.4653
▁Search	-10.4657
▁standing	-10.4661
▁meals	-10.4663
▁ounces	-10.4668
▁walking	-10.4673
▁lab	-10.4674
▁gum	-10.4676
▁relation	-10.4681
am	-10.4687
he	-10.4688
▁Show	-10.4691
▁Roast	-10.4693
▁distinctive	-10.4696
▁Heat	-10.4696
▁nutrition	-10.4696
▁annum	-10.4697
▁regularly	-10.47
▁$75	-10.471
▁HPV	-10.4719
▁restaurant	-10.4721
▁capsule	-10.4722
▁reduction	-10.4731
▁draw	-10.4735
▁technicians	-10.4738
▁2.5	-10.4738
▁boundaries	-10.4742
▁confused	-10.4745
▁fermentation	-10.4746
sized	-10.4747
▁occasionally	-10.4749
▁protective	-10.4757
▁organizations	-10.4757
▁160	-10.4759
▁silicon	-10.4772
▁Mexican	-10.4775
.”	-10.4781
▁lake	-10.4784
▁breeding	-10.4786
20	-10.4787
▁characters	-10.4789
▁rainfall	-10.4795
▁valid	-10.4799
▁otherwise	-10.4799
▁turning	-10.4807
▁habitat	-10.4809
▁closest	-10.4811
▁antibody	-10.4813
▁electronic	-10.4814
▁creates	-10.4817
▁didn	-10.4819
▁2013.	-10.4823
▁reflect	-10.4836
▁centuries	-10.4847
▁Arizona	-10.4847
▁breaks	-10.4848
▁democracy	-10.485
▁unknown	-10.485
▁Venus	-10.4852
▁Boston	-10.4854
▁trusted	-10.4856
▁Rock	-10.4865
line	-10.4868
▁$400	-10.4869
▁teacher	-10.4882
▁boat	-10.489
▁author	-10.4891
30	-10.49
more	-10.4902
▁copies	-10.4903
▁categories	-10.4905
▁diagnosed	-10.4909
▁seek	-10.4911
▁teachers	-10.4922
▁1970	-10.4924
▁deliver	-10.4924
▁$2,000	-10.4928
▁tap	-10.4932
▁selection	-10.4934
▁Mountain	-10.4934
▁solutions	-10.4939
▁nor	-10.495
▁severity	-10.4952
▁occurred	-10.4956
▁somewhere	-10.4961
▁clients	-10.4971
age	-10.4971
▁efficient	-10.4982
end	-10.499
▁beer	-10.4991
▁inventory	-10.5008
▁caffeine	-10.5009
▁(1)	-10.5011
▁wheel	-10.5011
▁advice	-10.5013
▁Brown	-10.5014
▁sum	-10.5016
▁carpet	-10.5017
▁truck	-10.5024
▁antigen	-10.5032
▁nest	-10.5033
▁documents	-10.5034
▁Green	-10.5038
other	-10.5039
▁attempt	-10.5041
▁Government	-10.505
▁achieve	-10.505
▁sections	-10.5051
▁Save	-10.5054
▁sore	-10.5057
▁sick	-10.5059
▁phosphorus	-10.506
▁paste	-10.5063
▁cornea	-10.5065
▁potentially	-10.5067
▁suitable	-10.5069
▁monitor	-10.507
▁sulfur	-10.5073
▁specialty	-10.5074
▁literally	-10.5075
▁fluids	-10.5075
ther	-10.5077
▁180	-10.5083
▁Where	-10.5083
▁king	-10.5085
▁.	-10.5091
▁circuit	-10.5094
▁province	-10.5094
▁conversion	-10.5099
▁expense	-10.5099
▁advantage	-10.5109
.]	-10.511
▁extensive	-10.5111
▁asphalt	-10.5115
▁removing	-10.5118
▁applies	-10.5121
▁Press	-10.5123
▁Work	-10.5126
▁intestines	-10.513
neurotransmitter	-10.5132
▁bath	-10.5135
▁spectrum	-10.5136
▁depth	-10.5146
▁driveway	-10.5149
▁turns	-10.5154
▁Indonesia	-10.5154
▁nucleotide	-10.5161
▁comprehensive	-10.5164
▁al	-10.5168
▁Senate	-10.5168
▁tells	-10.5168
▁quartz	-10.5173
▁Insurance	-10.5175
▁dissolved	-10.5177
▁teaspoon	-10.5187
▁Web	-10.5191
▁default	-10.5195
▁laser	-10.5203
▁jaw	-10.5207
made	-10.5207
▁camera	-10.5209
ian	-10.5212
▁receiving	-10.5223
▁corona	-10.5224
▁Second	-10.5225
▁Often	-10.5226
▁snow	-10.5227
▁match	-10.5235
▁aorta	-10.5236
▁thinking	-10.5237
if	-10.5238
▁cow	-10.5239
▁Plant	-10.524
▁shot	-10.5241
▁protects	-10.5243
▁selected	-10.5249
▁institution	-10.5254
▁finished	-10.5255
▁u	-10.526
▁buying	-10.5263
▁receptor	-10.5268
▁digital	-10.5279
▁mucus	-10.528
▁measuring	-10.5281
▁nutritional	-10.5281
▁cotton	-10.5282
▁reality	-10.5282
▁citizens	-10.5283
▁ears	-10.5284
▁qualified	-10.5284
▁manage	-10.5287
▁efficiency	-10.5288
▁path	-10.5295
▁actions	-10.5302
▁rack	-10.5306
▁inflammatory	-10.5315
▁erosion	-10.5315
▁palm	-10.5317
but	-10.5317
▁Gulf	-10.533
▁Summary	-10.5332
▁boundary	-10.5332
▁Oldest	-10.5333
▁necessarily	-10.5334
▁gave	-10.5336
▁regarding	-10.5336
▁religious	-10.5337
w	-10.5337
▁smoke	-10.5338
ra	-10.534
▁fraction	-10.5343
▁Light	-10.5344
▁binding	-10.5354
▁employers	-10.536
▁trans	-10.536
that	-10.5362
▁lean	-10.5377
▁Law	-10.5382
▁facilities	-10.5386
▁prostate	-10.5388
▁pricing	-10.539
▁Chicago	-10.5392
▁fibrous	-10.5395
▁$250	-10.5415
▁weighs	-10.5416
▁classification	-10.5423
▁rabbit	-10.5425
▁peace	-10.5428
▁Illinois	-10.5443
▁Seattle	-10.5445
▁Oregon	-10.5446
▁label	-10.5449
▁ligaments	-10.5455
▁varying	-10.5456
▁elected	-10.5463
▁regional	-10.5475
▁experts	-10.5479
▁Disease	-10.548
▁fun	-10.5483
▁mutation	-10.5484
▁trait	-10.5488
▁mouse	-10.55
▁intestinal	-10.5505
▁golden	-10.5506
▁anatomy	-10.5508
▁di	-10.5508
▁drinks	-10.5509
▁ion	-10.5515
▁$60	-10.5516
▁applying	-10.5517
▁showing	-10.5523
▁ideas	-10.5528
▁manner	-10.5538
▁relieve	-10.5545
English	-10.5546
▁tumors	-10.5546
▁shallow	-10.5548
▁Whe	-10.5551
▁trace	-10.5552
▁hardware	-10.5554
▁announced	-10.5556
▁medicines	-10.5557
▁Android	-10.5557
▁purple	-10.5557
▁veterinary	-10.5558
▁specified	-10.5559
▁practices	-10.5564
▁guidelines	-10.5569
▁partner	-10.558
▁generate	-10.5586
▁menstrua	-10.5588
▁2012.	-10.5589
▁sharing	-10.5589
▁decay	-10.5597
▁vessel	-10.5597
▁III	-10.5598
▁drops	-10.5598
▁Korea	-10.5601
▁Muscle	-10.5603
▁holes	-10.5603
▁injuries	-10.5611
▁deciduous	-10.5613
▁circular	-10.5613
▁chosen	-10.5613
▁continues	-10.562
▁news	-10.5628
▁cervical	-10.5628
▁cancers	-10.5628
▁acquired	-10.5631
▁$40	-10.5634
▁principal	-10.5652
▁interesting	-10.5653
▁peppers	-10.5654
▁client	-10.5656
▁Test	-10.5657
▁calls	-10.5663
▁epithelium	-10.5667
▁honey	-10.5668
▁territory	-10.5669
▁zero	-10.567
▁brisket	-10.567
▁wrote	-10.5673
▁Oil	-10.5675
▁vast	-10.5676
▁recovery	-10.5681
▁herbs	-10.5681
▁parties	-10.5681
▁preferred	-10.5683
▁progressive	-10.5686
▁roles	-10.5704
▁offering	-10.5706
▁Language	-10.5709
▁Free	-10.5714
▁tendons	-10.5714
▁Apple	-10.5715
▁onions	-10.5716
▁buildings	-10.5716
▁persons	-10.572
▁Scotland	-10.5725
▁leaving	-10.5728
▁USB	-10.5732
▁Nursing	-10.5734
ray	-10.5734
▁teaching	-10.5736
▁pick	-10.5746
side	-10.5753
▁weak	-10.5757
▁syrup	-10.5758
Getty	-10.5767
▁leukemia	-10.5768
▁tear	-10.5769
▁accept	-10.577
▁swollen	-10.5781
▁legislation	-10.5782
▁earliest	-10.5783
▁igneous	-10.5786
▁Area	-10.5788
▁concerned	-10.5789
▁Last	-10.5791
▁pets	-10.5792
▁Types	-10.5792
▁Can	-10.5793
▁checks	-10.58
▁models	-10.5805
▁55	-10.5806
▁format	-10.5816
▁thousand	-10.5819
▁Assistant	-10.5823
▁deduction	-10.5824
▁bear	-10.5824
▁movie	-10.5826
▁drywall	-10.5835
▁asthma	-10.5839
▁opportunity	-10.5839
▁poetry	-10.5842
▁automatically	-10.5842
▁housing	-10.5845
▁aren	-10.5846
▁nice	-10.5846
▁Henry	-10.5847
▁tablets	-10.5849
▁Russian	-10.585
▁involving	-10.5851
▁$1,500	-10.5853
▁download	-10.5862
▁Figure	-10.5863
▁contained	-10.5864
▁determines	-10.5869
▁Look	-10.5875
▁dates	-10.5878
▁cooling	-10.5879
▁sausage	-10.5885
▁beach	-10.5885
▁lists	-10.5886
▁flowering	-10.5887
Y	-10.5891
▁injection	-10.5893
▁hypothalamus	-10.5897
▁directions	-10.5903
▁diverse	-10.5904
▁stars	-10.5905
▁emergency	-10.591
▁chops	-10.592
soluble	-10.5923
▁scores	-10.5925
▁baked	-10.5925
▁ribosomes	-10.5935
▁Rate	-10.5935
=	-10.5945
▁composite	-10.5945
▁duty	-10.595
life	-10.5953
▁contacts	-10.5955
▁insulation	-10.5956
▁quantity	-10.5958
▁Three	-10.5959
▁20%	-10.5963
▁stick	-10.5968
▁squash	-10.5973
▁600	-10.5977
▁decreases	-10.5978
▁interested	-10.5987
▁occupation	-10.5996
▁template	-10.5999
▁equation	-10.6
▁Treatment	-10.6001
▁cycles	-10.6002
▁gestation	-10.6007
▁iPhone	-10.6008
▁Road	-10.601
▁discomfort	-10.6015
-1	-10.6016
▁gallbladder	-10.6017
▁Why	-10.6019
▁cuts	-10.6019
▁games	-10.602
▁conventional	-10.6023
▁David	-10.6025
▁reduces	-10.6025
▁Natural	-10.6026
▁saturated	-10.6029
▁secreted	-10.6033
ia	-10.6038
▁nutrient	-10.606
ca	-10.6065
▁emotional	-10.6073
▁coconut	-10.6075
▁agree	-10.6076
▁steaks	-10.6077
▁Weight	-10.6077
▁practical	-10.6078
▁Iron	-10.6083
▁Dutch	-10.6093
▁officially	-10.6094
▁lateral	-10.6094
▁Uses	-10.6101
▁axon	-10.6103
▁reverse	-10.6114
▁catch	-10.6117
▁tomato	-10.6118
▁stems	-10.6121
ine	-10.6121
▁Street	-10.6124
▁worse	-10.6125
▁Blue	-10.6125
z	-10.6133
▁puppies	-10.6133
▁inter	-10.6135
id	-10.6141
▁greatest	-10.6142
▁rainforests	-10.6143
▁essentially	-10.6145
▁clothing	-10.6145
▁traits	-10.615
▁actor	-10.6155
▁input	-10.6155
▁sores	-10.6162
▁shoes	-10.6168
▁]	-10.6178
▁brush	-10.6179
▁contributions	-10.6185
language	-10.6187
▁pericardium	-10.6193
▁historical	-10.6194
▁relief	-10.6196
▁heated	-10.6202
▁thoracic	-10.6213
▁bridge	-10.6216
▁translate	-10.6219
▁Based	-10.6219
▁horses	-10.6222
▁Per	-10.6223
▁juices	-10.623
▁ˈ	-10.6236
▁spots	-10.6239
▁ligament	-10.624
▁permit	-10.6241
▁allele	-10.6244
▁HDL	-10.6244
▁closing	-10.6249
▁duties	-10.6253
▁Transfer	-10.6255
▁affecting	-10.6259
▁belong	-10.6259
▁covalent	-10.626
▁Johnson	-10.626
▁dust	-10.6264
▁flight	-10.6267
▁photosynthesis	-10.6275
▁Class	-10.6276
▁decreased	-10.6278
▁concern	-10.628
▁stretch	-10.6288
rd	-10.6289
.”.	-10.6291
▁Chile	-10.6294
▁Arabic	-10.6296
▁protected	-10.6297
▁savings	-10.6301
▁directed	-10.6302
▁vertical	-10.6312
▁playing	-10.6315
▁consumer	-10.6315
ie	-10.6315
▁bigger	-10.6316
▁authority	-10.6316
▁Less	-10.632
▁administration	-10.632
▁consumers	-10.6328
▁houses	-10.6328
▁www	-10.6328
▁stream	-10.6347
▁2,000	-10.6355
▁poles	-10.6361
▁effort	-10.6362
▁landscape	-10.6364
▁stated	-10.6365
▁pizza	-10.6365
▁4747	-10.6367
▁90%	-10.637
▁parathyroid	-10.6371
▁cake	-10.6374
▁pop	-10.6377
▁gradually	-10.6377
▁healthcare	-10.6377
▁drainage	-10.6377
▁transportation	-10.6378
▁lawn	-10.6381
▁oz	-10.6387
▁latest	-10.6388
▁herb	-10.6388
▁coastal	-10.6389
▁explains	-10.6405
▁bottle	-10.6407
▁handle	-10.6413
▁stir	-10.6415
▁Southeast	-10.6417
▁lifestyle	-10.6427
▁polar	-10.6428
▁worker	-10.6436
▁Thailand	-10.6439
▁Arctic	-10.644
▁Al	-10.6442
▁fungal	-10.6446
▁reproductive	-10.6447
▁Range	-10.6449
▁zones	-10.6466
▁indicated	-10.6468
▁print	-10.6469
▁yield	-10.6472
▁Out	-10.6472
▁salts	-10.6472
▁adds	-10.6477
no	-10.6485
▁lift	-10.6486
▁FDA	-10.6488
▁maintaining	-10.6488
▁super	-10.6491
▁versions	-10.6496
▁alternate	-10.6503
▁inorganic	-10.652
▁pays	-10.652
▁string	-10.652
▁Small	-10.6522
this	-10.6532
▁visual	-10.6534
▁axis	-10.6547
▁mechanism	-10.6548
la	-10.6553
▁Within	-10.6557
▁corner	-10.656
gastrointestinal	-10.6563
▁pronunciation	-10.6564
▁artists	-10.6565
▁transition	-10.6576
▁shingles	-10.6578
▁traditionally	-10.6578
▁unlike	-10.6579
▁Pour	-10.658
▁choices	-10.6584
▁gallons	-10.6594
▁Try	-10.6597
▁acres	-10.6598
▁trained	-10.661
▁wrap	-10.6611
▁Corporation	-10.6611
▁Gold	-10.6613
▁deed	-10.6614
▁duration	-10.6617
▁rear	-10.6617
▁Section	-10.6617
▁1980	-10.6618
▁furniture	-10.6624
▁sitting	-10.6625
▁Paris	-10.6625
▁regardless	-10.6627
▁Season	-10.6629
▁shelf	-10.6637
▁institutions	-10.6647
▁fifth	-10.6649
▁difficulty	-10.665
▁represented	-10.6651
▁Choos	-10.6654
▁2005	-10.6673
▁lifespan	-10.6677
▁principles	-10.668
kg	-10.668
▁lid	-10.668
▁trauma	-10.6681
▁manufacturer	-10.6681
▁gel	-10.6685
▁Colorado	-10.6687
▁comfortable	-10.6689
▁meningitis	-10.669
▁Remember	-10.669
▁equals	-10.6696
▁72	-10.6703
▁Physical	-10.6705
▁lifetime	-10.6708
▁Body	-10.6712
water	-10.6719
▁Carbon	-10.6723
▁toxins	-10.6724
▁yards	-10.6729
▁curve	-10.6729
▁prison	-10.6735
▁recognize	-10.6737
▁panels	-10.6739
▁Women	-10.6741
▁bonus	-10.6745
▁policies	-10.6749
▁literature	-10.6749
▁cardiovascular	-10.6749
▁peas	-10.6752
▁environments	-10.6752
▁traffic	-10.6752
▁cellulose	-10.6755
▁Stone	-10.6763
▁travels	-10.6767
▁nations	-10.6767
▁Paul	-10.677
▁seat	-10.6776
▁Un	-10.678
▁2003	-10.6788
▁Louis	-10.679
▁lip	-10.6791
▁judge	-10.6792
▁acne	-10.6792
▁cent	-10.6797
▁Noun	-10.6802
▁notes	-10.6803
▁undergo	-10.6803
▁professors	-10.6811
▁constipation	-10.6813
▁beneath	-10.6813
▁franchise	-10.6814
▁retain	-10.6815
▁observed	-10.6817
▁recessive	-10.6828
▁coating	-10.6832
▁cement	-10.6836
▁resistant	-10.6838
▁fishing	-10.6854
▁pasta	-10.6855
▁releases	-10.6856
▁rod	-10.6857
▁segment	-10.6863
▁rainforest	-10.6866
▁atomic	-10.687
▁spices	-10.687
▁collect	-10.6872
▁connects	-10.6875
▁allergies	-10.6877
▁Welcome	-10.6877
▁relevant	-10.6877
▁flexible	-10.6877
▁overnight	-10.6879
▁inferior	-10.6881
▁imaging	-10.6883
▁extracted	-10.6888
▁hired	-10.6889
▁tape	-10.689
▁irregular	-10.6899
▁Control	-10.6901
▁bite	-10.6907
km	-10.6916
▁skill	-10.6922
▁pro	-10.6925
▁recipes	-10.693
▁carrier	-10.6937
▁HR	-10.6939
▁facial	-10.6939
▁Society	-10.6943
▁Treaty	-10.6944
▁140	-10.6946
▁messages	-10.6947
▁bought	-10.6951
determining	-10.6951
▁1)	-10.6952
▁Council	-10.6953
▁assistants	-10.6953
▁stronger	-10.6957
▁researchers	-10.6958
▁mutations	-10.6964
▁floors	-10.6965
▁rabbits	-10.6968
all	-10.6975
▁sensor	-10.698
▁fingers	-10.6987
▁crops	-10.6995
▁Mix	-10.6995
▁sentences	-10.6997
▁Chicken	-10.6997
▁secretion	-10.6999
ted	-10.7001
▁sudden	-10.7006
▁opportunities	-10.7006
▁colonies	-10.7008
▁intense	-10.7009
▁ordered	-10.701
me	-10.7011
▁dictionary	-10.7013
▁digest	-10.7016
▁centers	-10.7022
▁previously	-10.7027
▁cloth	-10.703
▁Names	-10.7034
▁ended	-10.7038
▁38	-10.7042
ial	-10.7049
▁Michael	-10.7056
▁situations	-10.7062
▁Valley	-10.7064
▁y	-10.7066
▁wound	-10.7067
▁dwarf	-10.7069
▁gender	-10.707
▁(3	-10.707
▁summary	-10.7072
▁himself	-10.7072
▁thymus	-10.7074
▁Community	-10.7074
▁transferred	-10.7075
▁soap	-10.708
▁benign	-10.7085
▁25%	-10.7088
▁hospitals	-10.7088
▁et	-10.7089
▁lime	-10.7095
▁translation	-10.7095
▁populations	-10.71
▁restaurants	-10.7103
▁profession	-10.7106
▁fork	-10.7115
▁respect	-10.7118
▁mood	-10.7119
▁discover	-10.7122
▁rooms	-10.7125
V	-10.7127
▁mirror	-10.7129
▁Location	-10.7134
▁contents	-10.7135
▁Pro	-10.7141
▁identity	-10.7141
▁Located	-10.7141
▁Due	-10.7142
▁80%	-10.7144
▁granted	-10.7146
▁Back	-10.715
▁corresponding	-10.7154
▁spider	-10.7172
▁sky	-10.7177
land	-10.7178
▁spirit	-10.7179
hose	-10.7185
▁director	-10.7187
▁interact	-10.7191
▁neutral	-10.7197
▁enhance	-10.7197
▁practitioner	-10.7197
▁Basic	-10.7204
▁readily	-10.7204
▁quantities	-10.7205
▁resin	-10.7206
▁fund	-10.7211
▁gravity	-10.7212
▁circumstances	-10.7212
▁adjacent	-10.7214
▁Force	-10.7217
▁effectively	-10.7221
▁colored	-10.7224
▁drawn	-10.7229
▁ionic	-10.7229
▁generated	-10.7229
▁apple	-10.7245
▁diagnose	-10.7248
▁tradition	-10.7254
▁(2)	-10.7261
▁farm	-10.7264
▁calorie	-10.7268
▁communities	-10.727
gov	-10.727
▁gasoline	-10.7271
▁chocolate	-10.7271
▁complementary	-10.7272
▁registration	-10.7274
▁Guide	-10.7274
▁cognitive	-10.7279
▁prey	-10.7283
▁melting	-10.7288
▁shapes	-10.729
▁decided	-10.7291
ism	-10.7293
▁talking	-10.7299
▁magnet	-10.7304
▁discharge	-10.7323
▁telephone	-10.7332
▁thumb	-10.7336
▁bulk	-10.7337
▁pollution	-10.7337
▁countertops	-10.734
▁weekly	-10.7341
▁Prince	-10.7343
▁2014.	-10.7344
▁banks	-10.7345
▁variables	-10.7349
▁initially	-10.7353
▁certainly	-10.7368
▁Call	-10.7376
off	-10.7379
▁architecture	-10.7398
▁stool	-10.7401
▁holiday	-10.7401
▁kingdom	-10.7402
▁1950	-10.7402
▁Sunday	-10.7403
▁Guinea	-10.7405
▁Emancipation	-10.7405
▁rheumatoid	-10.7406
▁ozone	-10.7407
▁saliva	-10.7408
▁wolf	-10.7408
▁installing	-10.7408
▁Michigan	-10.7409
▁Wisconsin	-10.7409
▁southwest	-10.741
▁tomatoes	-10.7411
▁Return	-10.7412
▁strands	-10.7427
▁Falls	-10.7429
▁asset	-10.7429
▁transported	-10.7433
▁supports	-10.744
▁register	-10.7443
▁offices	-10.7444
▁pole	-10.7451
▁insert	-10.7461
▁dentist	-10.7466
▁duck	-10.7467
▁password	-10.7468
▁helping	-10.7469
▁obvious	-10.747
▁association	-10.7471
▁Proclamation	-10.7473
▁basin	-10.7473
▁apartment	-10.7473
▁ownership	-10.7476
▁3-4	-10.7481
▁League	-10.7482
▁radioactive	-10.7483
▁visa	-10.7484
▁independence	-10.7485
▁Young	-10.7487
▁ending	-10.7491
▁row	-10.7496
▁shared	-10.7507
▁rating	-10.7512
▁sac	-10.7514
▁Follow	-10.7514
▁listing	-10.7519
▁$20,000	-10.7523
▁trunk	-10.7523
▁thigh	-10.7533
▁2-3	-10.7536
▁improvement	-10.7539
▁Major	-10.754
▁Abraham	-10.7541
▁performing	-10.7542
▁Annual	-10.7542
▁3-	-10.7544
▁tablespoon	-10.7544
▁utility	-10.7545
▁File	-10.7547
▁Kentucky	-10.755
▁alveoli	-10.7551
▁Child	-10.7558
▁complications	-10.7563
▁Point	-10.7566
▁cards	-10.7568
▁filling	-10.7575
▁ranks	-10.7576
▁constitute	-10.7583
▁beverages	-10.7585
▁answers	-10.7589
▁wanted	-10.7596
▁Reserve	-10.7597
▁routine	-10.76
▁arrival	-10.7606
▁carbonate	-10.7606
type	-10.7607
▁specialist	-10.7609
▁breaking	-10.761
▁THE	-10.7611
▁skillet	-10.7611
▁convenient	-10.7612
▁Uber	-10.7616
▁constantly	-10.7617
▁electromagnetic	-10.7617
▁Granite	-10.7617
▁basal	-10.7627
▁seizures	-10.763
▁gone	-10.7636
▁blocked	-10.7643
▁impulses	-10.7647
▁manufacture	-10.7651
▁appeared	-10.7652
▁artist	-10.7653
▁micro	-10.7656
▁bark	-10.7666
▁cutting	-10.7673
▁Hindu	-10.7673
▁genome	-10.7675
▁cuisine	-10.7676
▁lights	-10.7678
2.	-10.768
▁Copper	-10.768
▁grew	-10.7681
▁refined	-10.7683
▁fibrosis	-10.7683
▁Much	-10.7685
born	-10.7686
▁carriers	-10.7691
ta	-10.7691
▁suggested	-10.7694
▁plain	-10.7714
▁heater	-10.7722
▁pneumonia	-10.7726
▁decades	-10.7728
▁task	-10.7732
▁$12	-10.7744
▁Hall	-10.7745
▁sediment	-10.7747
▁Canyon	-10.775
▁considerably	-10.7751
▁circulatory	-10.7752
▁Between	-10.7753
▁mainland	-10.7753
▁Renaissance	-10.7754
▁conducted	-10.7761
▁street	-10.7762
▁aware	-10.7765
▁Turn	-10.7768
▁mining	-10.7778
▁detail	-10.7782
▁recommends	-10.7785
▁monkeys	-10.7789
▁respond	-10.779
red	-10.7793
▁acidic	-10.7797
▁athletes	-10.7801
▁Different	-10.7805
▁turtles	-10.7812
▁strip	-10.7819
▁waters	-10.7819
▁strategy	-10.782
▁proposed	-10.7822
▁fitness	-10.7822
▁ventricle	-10.7822
▁aspect	-10.7822
▁diagram	-10.7823
▁Prices	-10.7825
▁reaching	-10.7827
▁concentrated	-10.7828
▁contaminated	-10.783
▁Price	-10.7831
▁85	-10.7831
▁epithelial	-10.7831
▁brings	-10.7833
▁pour	-10.7835
▁nasal	-10.7836
▁fundamental	-10.7836
▁La	-10.784
▁cap	-10.7851
▁lie	-10.7857
▁seal	-10.7858
▁blend	-10.7862
▁eliminate	-10.7863
▁Berlin	-10.7874
▁bronchi	-10.7875
▁lymphocytes	-10.7875
▁Sugar	-10.7881
▁hope	-10.7887
▁elbow	-10.7888
▁1,	-10.7888
▁experiences	-10.7889
▁artificial	-10.7893
you	-10.7894
▁Monday	-10.7897
▁nitrate	-10.7897
▁tough	-10.7902
▁preventing	-10.7905
▁conditioning	-10.7905
▁Income	-10.7909
▁1990	-10.7917
▁Pre	-10.7919
▁Hi	-10.7924
▁edges	-10.7932
▁articles	-10.7937
▁finding	-10.7937
▁crystal	-10.795
▁Wall	-10.7951
▁marble	-10.7958
▁Bring	-10.7959
▁invention	-10.7962
▁Francisco	-10.7963
▁lipids	-10.7963
▁courts	-10.7964
▁Soviet	-10.7968
▁stiffness	-10.797
▁arrangement	-10.7971
cm	-10.7972
▁administered	-10.7974
▁shock	-10.7977
▁discovery	-10.7977
▁providers	-10.7978
▁learners	-10.7979
▁powers	-10.7981
▁stretching	-10.7986
▁IP	-10.7987
▁derives	-10.799
▁tablet	-10.7998
▁BMI	-10.8005
▁tight	-10.801
▁(2	-10.8012
▁desire	-10.802
▁tons	-10.8028
▁$80	-10.8028
▁infants	-10.8029
▁fair	-10.8032
▁exterior	-10.8035
▁tasks	-10.8035
▁certificate	-10.8037
▁importance	-10.8038
▁edible	-10.8038
▁freeze	-10.8038
▁Norway	-10.8039
▁iodine	-10.8043
▁soda	-10.8044
▁tightly	-10.8047
▁Answers	-10.805
▁AND	-10.8052
high	-10.8052
▁polymer	-10.8057
▁prevents	-10.8064
▁ducts	-10.8064
▁secret	-10.8065
▁sport	-10.8067
▁spores	-10.8067
▁urban	-10.8068
▁pictures	-10.8069
▁speakers	-10.8076
▁met	-10.8077
month	-10.8081
$	-10.8086
▁winds	-10.8092
▁periodic	-10.8097
▁traveling	-10.8104
▁geographic	-10.8106
▁dizziness	-10.8107
▁philosophy	-10.8107
▁marriage	-10.8107
▁cultivated	-10.8108
▁purchasing	-10.8108
▁Public	-10.8108
▁subspecies	-10.8109
▁valuable	-10.8109
▁District	-10.8109
▁Animal	-10.8109
▁gently	-10.811
▁serum	-10.8111
▁occupational	-10.8113
▁absence	-10.8114
▁Professional	-10.8115
▁disk	-10.8116
▁practitioners	-10.8116
▁safely	-10.8119
▁finally	-10.812
▁Bill	-10.8129
▁carrots	-10.8134
▁boost	-10.8134
▁atmospheric	-10.8135
▁rings	-10.8139
▁Run	-10.8147
▁breasts	-10.8152
▁$2,500	-10.8152
▁30%	-10.8162
▁computers	-10.8165
▁15%	-10.8166
▁continents	-10.8168
▁$50,000	-10.817
▁aged	-10.817
▁2011.	-10.8171
▁flooring	-10.8172
▁ticket	-10.8178
▁implants	-10.818
▁regulations	-10.818
▁perennial	-10.8181
▁greenhouse	-10.8181
▁resource	-10.8182
▁beneficial	-10.8183
▁ginseng	-10.8183
▁pelvic	-10.8183
▁ceramic	-10.8183
▁identical	-10.8186
yourself	-10.8186
▁tried	-10.8187
▁competitive	-10.819
▁loin	-10.8194
▁novel	-10.8194
▁itching	-10.8196
▁Apply	-10.821
▁hence	-10.8217
▁focused	-10.8222
▁Mary	-10.8223
▁counter	-10.823
▁Wood	-10.8237
▁Jack	-10.8238
W	-10.8242
▁bills	-10.8247
▁Shakespeare	-10.8249
▁shade	-10.825
▁chief	-10.8251
▁criteria	-10.8253
▁expectancy	-10.8253
▁studied	-10.8254
▁Salmonella	-10.8255
▁ovaries	-10.8257
▁Louisiana	-10.8258
▁temporary	-10.8262
▁assist	-10.8263
▁decisions	-10.8263
▁delivered	-10.8271
▁possess	-10.8279
▁helped	-10.828
▁amazing	-10.8281
▁mission	-10.8283
▁infect	-10.8288
40	-10.8294
▁Power	-10.8296
▁foam	-10.8301
▁guarantee	-10.8305
▁react	-10.8308
▁vaccines	-10.8311
▁auto	-10.8312
▁Such	-10.8314
▁prime	-10.8318
▁examine	-10.8322
▁finance	-10.8323
▁Traditional	-10.8325
▁grapes	-10.8326
▁vagina	-10.8329
▁barley	-10.8329
▁Ancient	-10.8329
▁felt	-10.833
▁Beach	-10.8332
▁isolated	-10.8333
▁cooker	-10.8336
▁pond	-10.8336
▁reasonable	-10.8336
▁33	-10.8336
▁correctly	-10.8339
▁Exchange	-10.8339
▁regulation	-10.8345
▁physicians	-10.8345
▁organized	-10.835
▁IT	-10.8356
▁grant	-10.8359
▁messenger	-10.8359
▁carrying	-10.8362
▁triglycerides	-10.8362
▁Plants	-10.8366
▁worn	-10.8367
▁screening	-10.837
▁].	-10.8382
▁trouble	-10.8383
na	-10.8387
▁repairs	-10.8389
▁football	-10.8397
▁onset	-10.8401
▁Vietnam	-10.8402
▁lawyer	-10.8402
▁bilirubin	-10.8403
▁dialysis	-10.8406
▁absolute	-10.8406
▁ammonia	-10.8407
▁assembly	-10.8407
▁dedicated	-10.8408
▁replacing	-10.8408
▁strains	-10.8411
▁Peru	-10.8414
▁elastic	-10.842
▁simplest	-10.842
▁illnesses	-10.8421
▁Year	-10.8425
▁Fire	-10.8432
▁lakes	-10.8433
▁Los	-10.8451
▁views	-10.8452
▁Royal	-10.8459
▁measurements	-10.8463
▁secure	-10.8469
▁rotation	-10.8473
rs	-10.8474
▁Drug	-10.8475
▁church	-10.8476
▁immediate	-10.8477
▁Alabama	-10.8477
▁funeral	-10.8478
▁sector	-10.848
▁widespread	-10.8482
▁trachea	-10.8482
▁trademark	-10.8486
▁anaerobic	-10.8487
U	-10.8489
▁epidermis	-10.849
▁smoking	-10.849
▁updated	-10.8493
▁Bridge	-10.8502
inflammatory	-10.8503
▁pack	-10.8504
▁Give	-10.8508
▁$100,000	-10.8509
▁Access	-10.8513
It	-10.8514
▁Being	-10.8527
▁insoluble	-10.8531
▁stimulates	-10.8534
American	-10.8541
▁$35	-10.8543
▁optic	-10.8544
▁DEFINITION	-10.8548
▁childhood	-10.8553
▁minority	-10.8554
▁forced	-10.8554
▁Chemical	-10.8554
▁Short	-10.8554
▁countertop	-10.8558
rays	-10.8558
▁withdrawal	-10.8559
▁laid	-10.8559
▁tablespoons	-10.856
▁shells	-10.856
▁lactose	-10.856
▁dopamine	-10.8561
▁Doctor	-10.8561
▁Christian	-10.8567
▁tested	-10.8568
▁1-2	-10.8569
▁Lee	-10.857
el	-10.8572
▁whatever	-10.8572
▁filaments	-10.8574
▁Cancer	-10.8574
▁regarded	-10.8577
▁spaces	-10.8578
▁Table	-10.8581
▁silk	-10.8589
▁ex	-10.859
▁rising	-10.8593
▁moment	-10.8597
▁applicants	-10.8599
▁ants	-10.8603
▁considering	-10.8604
▁pad	-10.8605
▁Smith	-10.8614
▁passing	-10.8617
putting	-10.8623
▁weighted	-10.8625
▁37	-10.8625
▁optimal	-10.8629
▁Tennessee	-10.8629
▁shipping	-10.8631
▁Thyroid	-10.8631
▁framework	-10.8632
▁fur	-10.8632
60	-10.8632
▁evaluate	-10.8632
▁Pluto	-10.8632
▁delay	-10.8633
▁poem	-10.8634
▁overhead	-10.8635
▁worms	-10.8635
▁Jupiter	-10.8637
▁temp	-10.8638
▁Temperature	-10.8638
▁anesthesia	-10.864
▁partially	-10.864
▁genetically	-10.8642
▁Master	-10.8644
▁progress	-10.8646
▁inserted	-10.8646
▁Comments	-10.8656
▁route	-10.8674
▁odor	-10.868
▁5%	-10.8694
▁careful	-10.8699
▁membership	-10.8709
▁southeast	-10.871
▁competition	-10.871
▁Experience	-10.8711
▁limestone	-10.8712
▁Facts	-10.8713
▁fastest	-10.8713
▁Utah	-10.8715
▁Online	-10.8716
especially	-10.8716
▁Charles	-10.8716
▁Median	-10.8718
▁calling	-10.8719
•	-10.8719
▁underground	-10.8719
▁awarded	-10.8722
▁valves	-10.8725
▁indoor	-10.8742
▁relationships	-10.8747
▁overtime	-10.8749
▁Pain	-10.8756
▁Fish	-10.8756
▁evenly	-10.8757
▁channel	-10.8764
▁advance	-10.8772
▁325	-10.8776
▁Di	-10.8776
▁Calcium	-10.8784
▁Navy	-10.8784
▁sensation	-10.8786
▁liability	-10.8786
▁pharmacist	-10.8787
▁administrative	-10.8787
▁twenty	-10.8788
▁fertilizer	-10.8788
▁professor	-10.8789
▁Commission	-10.879
▁indicator	-10.879
▁thread	-10.879
▁destroy	-10.8792
▁junction	-10.8792
▁printer	-10.8792
▁senior	-10.8796
▁metropolitan	-10.8798
▁privacy	-10.8798
▁killed	-10.8802
▁referr	-10.8803
▁supporting	-10.8804
▁alpha	-10.8805
▁everyday	-10.8806
▁Party	-10.8806
▁finger	-10.8809
▁designated	-10.8815
▁$9	-10.8819
▁Down	-10.8823
▁meeting	-10.8843
▁ca	-10.8846
▁Hav	-10.8849
▁therapists	-10.8851
▁Cells	-10.8855
▁entering	-10.8855
▁trigger	-10.886
▁Ask	-10.8861
▁census	-10.8862
▁Belgium	-10.8862
▁newly	-10.8862
▁lupus	-10.8863
▁massive	-10.8864
▁lobe	-10.8865
▁rural	-10.8865
▁Chapter	-10.8865
▁microscopic	-10.8866
sometimes	-10.8868
▁/ˈ	-10.8869
▁Typical	-10.887
▁lice	-10.8871
▁Moon	-10.8876
style	-10.8878
▁operates	-10.8903
▁pipe	-10.8908
▁headaches	-10.8917
▁bpm	-10.8921
▁recording	-10.8926
▁pale	-10.8926
▁Protein	-10.8928
▁maybe	-10.8934
▁marinade	-10.8934
▁leather	-10.8935
▁Golgi	-10.8942
▁Magnesium	-10.8944
▁Expect	-10.8944
▁eruption	-10.8945
▁ovulation	-10.8949
▁daycare	-10.895
▁terrestrial	-10.895
▁Normally	-10.8951
▁wooden	-10.8951
▁universities	-10.8952
▁Continental	-10.8952
▁tuberculosis	-10.8952
▁beaches	-10.8953
▁belt	-10.8954
▁vertebrae	-10.8955
▁manufacturers	-10.8955
▁larynx	-10.8955
▁conductor	-10.8958
▁Word	-10.8958
▁gutters	-10.8959
▁pine	-10.896
▁cranial	-10.8966
▁averag	-10.8966
▁advantages	-10.8973
▁Map	-10.8975
▁teams	-10.8975
▁oval	-10.8975
▁Me	-10.8983
▁dimensions	-10.8986
▁entered	-10.8987
▁stuff	-10.899
way	-10.8991
▁stops	-10.8991
▁Garden	-10.8993
▁46	-10.8994
▁whom	-10.9012
▁Peninsula	-10.9014
▁confirm	-10.9018
▁confusion	-10.902
▁jewelry	-10.9022
▁Store	-10.9024
▁hollow	-10.9024
▁missed	-10.9024
▁library	-10.9026
▁passage	-10.9028
are	-10.9029
▁launched	-10.9029
▁plaque	-10.903
▁harm	-10.9031
▁newborn	-10.9034
▁detected	-10.9038
▁TX	-10.9038
▁visitors	-10.9038
▁assigned	-10.9044
ring	-10.9051
▁arranged	-10.906
▁surrounds	-10.9066
▁Men	-10.9069
▁roofing	-10.9074
▁10,000	-10.9075
ground	-10.9078
▁bonding	-10.9085
▁1997	-10.9086
▁poly	-10.9094
▁0.5	-10.9094
▁Dental	-10.9096
▁goddess	-10.9101
▁marijuana	-10.9102
▁Bible	-10.9103
▁Directions	-10.9104
▁carefully	-10.9104
▁laying	-10.9104
▁advertising	-10.9104
▁snack	-10.9107
▁northeast	-10.9108
▁cavities	-10.9108
▁risks	-10.9108
▁sexually	-10.9109
▁styles	-10.9109
▁transaction	-10.9109
▁Director	-10.9109
▁commercially	-10.9111
▁radius	-10.9113
▁Support	-10.9118
▁brother	-10.9118
▁lesions	-10.9126
per	-10.9128
▁separates	-10.9128
▁Following	-10.9131
▁parking	-10.9131
▁aside	-10.9132
▁soup	-10.9148
▁defines	-10.9152
▁Line	-10.9155
▁Ma	-10.9159
▁Indiana	-10.9163
▁CO	-10.9174
▁Additional	-10.918
▁puberty	-10.9181
▁leadership	-10.9181
▁appetite	-10.9181
▁assess	-10.9183
▁Wales	-10.9183
Supreme	-10.9184
▁exclusive	-10.9186
▁furnace	-10.9187
▁belief	-10.9188
▁Technician	-10.9189
▁calculation	-10.9191
▁repeated	-10.9191
▁psychological	-10.9192
▁coil	-10.9192
▁outdoor	-10.9193
▁leafy	-10.9195
▁constructed	-10.9196
▁remote	-10.9201
▁grape	-10.9222
▁aim	-10.9222
▁continued	-10.9224
ma	-10.9232
ton	-10.9253
▁vacuum	-10.9253
▁northwest	-10.9256
▁orders	-10.9259
▁infant	-10.926
▁delicious	-10.9262
▁(/ˈ	-10.9263
▁Oklahoma	-10.9263
▁happy	-10.9265
▁2006	-10.9269
▁educational	-10.9269
▁synthesized	-10.927
▁piston	-10.927
▁representative	-10.9271
▁browser	-10.9271
▁bitter	-10.9272
▁vapor	-10.9273
▁Hospital	-10.9275
▁creatinine	-10.9275
▁ankle	-10.9276
ory	-10.9278
▁oceanic	-10.9278
▁latitude	-10.9279
▁deals	-10.9279
▁adjust	-10.9281
▁flowing	-10.9287
▁slice	-10.9289
▁differs	-10.9291
▁incorporated	-10.9302
▁drawing	-10.9303
▁Book	-10.9303
▁Mars	-10.9323
▁boiled	-10.9323
▁Pu	-10.9324
▁falling	-10.9325
car	-10.9334
▁Answered	-10.9339
green	-10.9339
▁sits	-10.9342
▁warranty	-10.9344
▁Batman	-10.9347
▁Minnesota	-10.9347
▁Skin	-10.9348
▁declared	-10.9348
▁coldest	-10.9351
▁seafood	-10.9351
▁Tweet	-10.9352
▁principle	-10.9353
▁false	-10.9356
▁dating	-10.936
▁Bachelor	-10.936
▁platform	-10.936
▁distinguished	-10.9361
▁physics	-10.9361
dl	-10.9363
▁aromatic	-10.9364
▁mask	-10.9368
▁affordable	-10.9369
▁Benefits	-10.9369
▁scales	-10.9371
▁push	-10.9375
▁interview	-10.9381
▁hotels	-10.9382
▁alloy	-10.9387
▁mine	-10.9387
▁metallic	-10.9388
▁maintained	-10.9396
.).	-10.9398
▁tag	-10.9407
▁abuse	-10.9417
▁acting	-10.9423
▁contractions	-10.9424
▁peninsula	-10.9426
▁Lower	-10.9426
▁oceans	-10.9429
▁Club	-10.943
▁inflamed	-10.9431
▁cerebr	-10.9432
▁specialists	-10.9433
▁fertility	-10.9435
▁freedom	-10.9435
▁carcinoma	-10.9435
▁successfully	-10.9437
▁Chief	-10.944
▁Financial	-10.9441
X	-10.9442
▁settlement	-10.9443
▁footage	-10.9446
▁sole	-10.9447
▁fragments	-10.945
ical	-10.9451
▁Na	-10.9451
▁thermal	-10.9457
definitely	-10.947
▁ulcers	-10.9473
resistant	-10.9473
▁(4	-10.9476
▁balanced	-10.9495
▁biome	-10.9498
▁exhibit	-10.9504
▁Q	-10.9504
▁Certain	-10.9507
▁programming	-10.9512
▁iPad	-10.9512
▁concentrations	-10.9517
▁oxygenated	-10.9517
white	-10.9519
▁turtle	-10.952
▁ancestor	-10.9521
▁colorless	-10.9521
▁Wi	-10.9522
▁34	-10.9523
▁colony	-10.9523
▁pulled	-10.9525
▁Muslim	-10.9529
▁spiritual	-10.9529
▁Mark	-10.953
▁Saint	-10.9532
▁parallel	-10.9533
▁Application	-10.9535
▁networks	-10.9535
pound	-10.9536
▁designs	-10.954
▁enclosed	-10.9541
▁Does	-10.9544
▁favor	-10.9545
▁slaves	-10.9546
▁sufficient	-10.9548
▁instruments	-10.9559
ate	-10.9561
▁icon	-10.9568
▁returned	-10.9569
▁fix	-10.9573
▁canal	-10.9574
▁Iceland	-10.9579
▁Direct	-10.9587
▁looked	-10.9591
▁Large	-10.9591
▁ease	-10.9592
negative	-10.9592
▁entitled	-10.9594
▁salivary	-10.9596
▁elevated	-10.9596
▁Committee	-10.9596
▁phenomenon	-10.9596
▁Dallas	-10.9596
▁tobacco	-10.9599
▁cramps	-10.9599
▁alkaline	-10.96
▁missing	-10.9601
▁Special	-10.9601
▁130	-10.9602
▁tenderloin	-10.9604
▁veterinarian	-10.9604
▁toilet	-10.9607
▁accredited	-10.9608
▁creation	-10.9608
▁placing	-10.9609
▁vaccination	-10.9611
▁focuses	-10.9614
▁legally	-10.9616
▁ill	-10.9619
▁union	-10.9622
▁adj	-10.9623
▁adjusted	-10.9623
▁sharp	-10.9629
▁Salt	-10.9635
▁Art	-10.9637
▁interaction	-10.9644
▁attend	-10.9646
▁Fees	-10.9659
▁bands	-10.9663
▁clots	-10.9667
▁fatal	-10.9667
over	-10.9668
▁retina	-10.9676
▁consistent	-10.9677
ment	-10.9678
▁underneath	-10.9679
▁throw	-10.9679
▁rub	-10.968
▁Bacillus	-10.968
▁petroleum	-10.968
▁extracellular	-10.9681
▁ordinary	-10.9681
▁varied	-10.9681
▁reliable	-10.9681
▁substitute	-10.9682
▁wisdom	-10.9682
▁iTunes	-10.9682
▁cure	-10.9682
▁acceptance	-10.9682
▁Thumb	-10.9683
▁evolved	-10.9683
non	-10.9684
▁quote	-10.9689
▁Sanskrit	-10.9691
▁Server	-10.9691
▁OK	-10.9691
▁450	-10.9694
relating	-10.9695
▁district	-10.9698
▁lipid	-10.9701
▁marks	-10.9702
▁ahead	-10.9707
▁suffering	-10.9709
▁loop	-10.9711
▁predict	-10.9714
ite	-10.9724
▁tick	-10.9727
▁specialize	-10.9728
ability	-10.9731
▁readers	-10.9737
▁arts	-10.9739
▁nails	-10.9744
▁episodes	-10.9745
▁bay	-10.9745
TM	-10.9748
▁Victoria	-10.9751
▁divides	-10.9752
▁Travel	-10.9752
▁pads	-10.9753
▁chickens	-10.9756
▁leaders	-10.9757
▁graph	-10.9757
▁submit	-10.9758
▁PayPal	-10.9764
▁monoxide	-10.9766
▁ultimately	-10.9766
▁freshwater	-10.9766
▁Protection	-10.9766
▁Excel	-10.9767
▁gluten	-10.9768
▁Among	-10.9768
▁residency	-10.9769
▁identification	-10.9769
▁mercury	-10.9769
▁completion	-10.9769
▁internet	-10.9772
▁Outlook	-10.9773
▁rigid	-10.9773
▁Job	-10.9773
▁hemisphere	-10.9777
▁Plus	-10.9777
▁brake	-10.9779
▁god	-10.978
▁chamber	-10.9782
▁gap	-10.9788
▁Friday	-10.9794
▁habitats	-10.98
▁parasites	-10.9805
▁Patients	-10.9806
▁proportion	-10.981
▁lease	-10.9811
hr	-10.9813
▁upwards	-10.9816
▁peanuts	-10.9819
▁universal	-10.982
▁cave	-10.983
-3	-10.9835
▁commission	-10.9842
os	-10.9844
▁mL	-10.9846
▁#	-10.9848
▁implies	-10.9851
▁Angeles	-10.9851
▁injured	-10.9851
▁shopping	-10.9852
▁Simply	-10.9853
▁geographical	-10.9853
▁stories	-10.9854
▁Ontario	-10.9855
▁165	-10.9856
▁Organic	-10.9857
▁charging	-10.9858
▁slide	-10.9859
▁Desert	-10.9863
▁planted	-10.9863
▁communicate	-10.9863
▁amendment	-10.9864
▁oxidation	-10.9864
▁autonomic	-10.9865
▁Solar	-10.9866
▁spice	-10.987
▁adequate	-10.987
▁defense	-10.9871
▁singer	-10.9872
▁Zone	-10.9873
▁Java	-10.9874
▁semester	-10.9876
▁army	-10.9878
▁700	-10.9878
de	-10.9882
▁packages	-10.9888
▁wings	-10.9889
▁chemically	-10.9896
▁5-	-10.9904
filled	-10.9912
▁Survey	-10.9923
▁AM	-10.9929
▁Jersey	-10.9937
▁Technology	-10.9938
▁consent	-10.9938
▁morphine	-10.9941
▁deduct	-10.9942
▁accumulation	-10.9943
▁destroyed	-10.9947
▁rinse	-10.9947
▁Originally	-10.9949
▁crumbs	-10.9955
▁salad	-10.9956
▁update	-10.9957
▁spouse	-10.9958
▁intensity	-10.9959
▁substrate	-10.9959
▁elevation	-10.996
▁gravel	-10.9962
▁Jewish	-10.9966
▁grades	-10.9966
▁grey	-10.9966
▁Grant	-10.9967
▁info	-10.9968
▁El	-10.9973
▁Size	-10.9984
often	-10.9988
▁cereals	-10.9999
▁stays	-11.0001
▁Fort	-11.0002
▁fasting	-11.0014
▁Golden	-11.0016
▁Church	-11.0018
▁ships	-11.0022
▁aureus	-11.0025
▁fighting	-11.0025
▁Independence	-11.0026
▁sunshine	-11.0027
▁Netherlands	-11.0027
▁dividing	-11.0027
▁preheated	-11.0028
▁knife	-11.0033
▁sheets	-11.0035
▁kangaroo	-11.0038
000	-11.0039
▁testosterone	-11.004
▁Genetic	-11.004
▁reporting	-11.004
ə	-11.0041
▁satellite	-11.0042
▁scheme	-11.0045
▁Order	-11.0045
down	-11.0049
▁estrogen	-11.0049
▁deductible	-11.0055
▁glaciers	-11.006
-ˈ	-11.0067
▁Cooking	-11.0067
▁attach	-11.0067
▁learned	-11.0075
This	-11.0078
▁Unit	-11.0079
▁shrubs	-11.0081
▁math	-11.009
▁marketed	-11.0093
▁worry	-11.0101
co	-11.0102
▁pulp	-11.0103
▁1920	-11.0104
▁thighs	-11.0105
▁borders	-11.011
▁Austria	-11.0111
▁blade	-11.0113
▁celestial	-11.0114
▁offspring	-11.0114
▁claimed	-11.0115
▁squamous	-11.0115
▁survival	-11.0115
▁subsequent	-11.0116
▁Simple	-11.0117
▁complicated	-11.0117
▁vaginal	-11.0118
▁crop	-11.0119
▁thymine	-11.0122
▁wonderful	-11.0123
so	-11.0123
▁(2000	-11.0124
J	-11.0128
▁clot	-11.0128
▁nephron	-11.0129
noun	-11.0131
▁Safety	-11.0133
▁lender	-11.0136
▁Lord	-11.0137
▁Are	-11.0141
▁genital	-11.0142
coming	-11.016
ts	-11.0173
▁knowing	-11.0182
▁ACT	-11.0183
▁Man	-11.0183
▁mono	-11.0185
▁$6,000	-11.0187
▁MD	-11.0192
▁CA	-11.0194
▁Sales	-11.0195
▁inhibit	-11.0195
▁teach	-11.0196
▁Surgery	-11.0204
▁Therapy	-11.0205
▁embryo	-11.021
▁Tropical	-11.021
▁Caribbean	-11.021
▁equity	-11.0212
▁Local	-11.0217
▁irritation	-11.0217
▁Hotel	-11.0218
▁Cell	-11.022
▁lips	-11.022
▁helix	-11.0223
▁alleles	-11.0223
▁Four	-11.0223
▁consideration	-11.0224
▁Building	-11.0225
▁noise	-11.0226
▁governments	-11.0229
her	-11.0235
▁USD	-11.0239
▁somatic	-11.0239
▁belonging	-11.024
▁bearing	-11.0241
▁lighter	-11.0247
▁gametes	-11.025
mail	-11.025
▁Play	-11.0256
▁combines	-11.0263
threatening	-11.0269
▁bits	-11.027
▁brands	-11.027
oplasm	-11.0271
▁treaty	-11.0281
▁truth	-11.0284
▁Trust	-11.0289
▁illegal	-11.029
▁pipes	-11.0292
▁Nevada	-11.0293
▁realize	-11.0293
▁immigration	-11.0293
▁predominantly	-11.0294
▁cheap	-11.0294
▁glycogen	-11.0296
▁minimal	-11.0297
▁Mercury	-11.03
▁despite	-11.0303
▁Engineering	-11.0303
▁lens	-11.0304
▁apples	-11.0305
▁Music	-11.0306
▁segments	-11.0308
▁raising	-11.0308
▁introduction	-11.0308
▁Cut	-11.031
▁hydroxide	-11.0311
▁tiger	-11.0314
▁Posted	-11.0315
▁Occupation	-11.0316
▁fibre	-11.0316
▁aortic	-11.0318
▁harder	-11.0318
▁predators	-11.0324
▁buyer	-11.0325
▁interests	-11.0327
▁40%	-11.0328
everal	-11.0332
▁portions	-11.0335
▁sized	-11.0341
▁sixth	-11.0341
▁Print	-11.0345
▁Change	-11.0354
▁bonded	-11.0357
▁election	-11.0357
▁Big	-11.0365
▁Weather	-11.0372
▁Car	-11.0376
▁Marine	-11.0377
▁bus	-11.038
▁expand	-11.0382
▁reticulum	-11.0384
▁mythology	-11.0384
▁friendly	-11.0385
▁poison	-11.0386
▁basketball	-11.0386
▁numbness	-11.0386
▁sheep	-11.0388
▁celebrated	-11.0389
▁responsibility	-11.0389
▁Antarctica	-11.0389
▁cows	-11.039
▁sequences	-11.0392
▁Atlanta	-11.0395
lways	-11.0396
▁Hemisphere	-11.0398
▁pathway	-11.0401
▁Color	-11.0404
▁ethanol	-11.0404
▁error	-11.0405
▁inspired	-11.0415
▁teaspoons	-11.0418
▁writer	-11.0428
▁mice	-11.043
▁OF	-11.043
▁Dog	-11.0432
▁escape	-11.0437
▁Split	-11.0438
▁statements	-11.0442
”)	-11.0448
▁systemic	-11.045
▁suffer	-11.045
ant	-11.045
▁drill	-11.0456
▁Prime	-11.0461
▁empty	-11.0461
▁100,000	-11.0464
▁70%	-11.0466
United	-11.0474
▁parsley	-11.0475
▁slope	-11.0478
▁checked	-11.0479
▁lenses	-11.048
▁requiring	-11.0485
▁prevention	-11.0486
▁medicinal	-11.0488
▁redness	-11.0489
▁ride	-11.049
▁la	-11.0493
▁fracture	-11.0493
▁rubber	-11.0495
▁pharmacy	-11.0496
▁interface	-11.0497
▁0.	-11.05
▁cooler	-11.05
can	-11.0503
▁wrinkles	-11.0505
▁wash	-11.052
▁arise	-11.0527
▁tendon	-11.0528
▁3)	-11.0535
▁persistent	-11.0536
▁IV	-11.0536
▁mammal	-11.0536
▁1%	-11.0538
▁3.5	-11.0542
▁coated	-11.0543
▁candidates	-11.0545
80	-11.0553
▁producers	-11.0555
▁heads	-11.056
ance	-11.0561
▁fashion	-11.0562
▁bags	-11.0564
▁decorative	-11.0568
▁influenza	-11.057
▁Academy	-11.057
▁attractive	-11.0573
▁Staphylococcus	-11.0574
▁conception	-11.0575
▁gut	-11.0575
▁recover	-11.0576
▁wonder	-11.0577
▁definitions	-11.0578
▁Poland	-11.0578
▁settled	-11.0579
accompanied	-11.0579
▁formerly	-11.058
▁phylum	-11.0581
▁differently	-11.0585
board	-11.0586
▁opinion	-11.0587
▁misdemeanor	-11.0587
▁implant	-11.0589
nt	-11.0589
▁landlord	-11.059
▁organelle	-11.059
▁airline	-11.059
▁breathe	-11.0594
▁legumes	-11.0597
▁Cooked	-11.06
▁Norman	-11.06
▁Queen	-11.0609
▁pathogens	-11.0615
cost	-11.0615
▁medulla	-11.0616
▁hybrid	-11.0617
▁waiting	-11.0618
▁heel	-11.0618
▁Adams	-11.0621
▁choos	-11.063
▁Martin	-11.0639
▁fear	-11.0645
▁6.	-11.0651
▁Have	-11.0652
▁senses	-11.0653
▁42	-11.0655
▁Adding	-11.0657
▁Jackson	-11.0661
▁mucous	-11.0662
▁homeowner	-11.0663
▁Born	-11.0663
▁southeastern	-11.0664
▁Celtic	-11.0665
▁existence	-11.0666
▁enlarged	-11.0668
▁decline	-11.0671
▁chances	-11.0673
▁$25,000	-11.0679
▁heartbeat	-11.0681
▁restricted	-11.0681
▁deposited	-11.0681
▁grocer	-11.0682
▁saying	-11.0683
▁perspective	-11.0684
▁concerns	-11.0684
▁4-	-11.0685
▁scene	-11.0685
▁Egyptian	-11.0689
▁awareness	-11.0689
▁sticks	-11.0692
▁nickname	-11.0693
▁delicate	-11.0699
▁psychologists	-11.07
▁Network	-11.0705
▁producer	-11.0707
▁fans	-11.0707
▁Image	-11.071
▁hydrocarbons	-11.0711
▁platelets	-11.0711
▁gains	-11.0719
▁rays	-11.072
▁musical	-11.0733
▁Arabia	-11.0743
▁updates	-11.0744
long	-11.0748
▁clutch	-11.0752
▁freight	-11.0754
▁appeal	-11.0756
▁endangered	-11.0757
▁explore	-11.0761
▁diamond	-11.0761
▁visceral	-11.0762
▁Easter	-11.0763
▁Rome	-11.0768
▁43	-11.0769
use	-11.0771
▁gastric	-11.0772
▁Scandinavian	-11.0772
▁challenge	-11.0773
▁topic	-11.0774
▁achieved	-11.0774
▁eukaryotes	-11.0775
▁thermostat	-11.0776
▁diagnostic	-11.0776
▁cosmetic	-11.0777
▁triple	-11.0777
▁agreed	-11.0778
▁precursor	-11.0782
▁Infection	-11.0782
▁brick	-11.0784
▁Modern	-11.0784
▁Right	-11.0787
▁candy	-11.0792
▁$45	-11.0794
US	-11.0799
▁800	-11.0801
▁bred	-11.0802
▁skip	-11.0807
▁$4,000	-11.0807
▁indirect	-11.0807
▁Site	-11.0808
▁Cold	-11.0811
▁herpes	-11.0813
▁steep	-11.0821
▁exit	-11.0824
▁1,500	-11.0827
▁checking	-11.083
▁CT	-11.0836
colored	-11.084
▁sacs	-11.0841
▁Her	-11.0843
▁Night	-11.0843
▁transplant	-11.0844
net	-11.0845
▁channels	-11.0849
▁Associate	-11.085
▁Clinical	-11.085
▁$15,000	-11.0853
▁applicable	-11.0854
▁Norse	-11.0854
▁flesh	-11.0854
▁jurisdiction	-11.0854
▁regulator	-11.0854
▁Secretary	-11.0855
▁patches	-11.0857
▁polymers	-11.0858
▁beat	-11.0859
▁graft	-11.0859
▁Calories	-11.0863
▁brief	-11.0864
▁lying	-11.0866
▁adapted	-11.0867
▁centimeters	-11.0868
▁Turkish	-11.0869
▁manual	-11.0869
▁feelings	-11.0871
▁effectiveness	-11.0873
▁approval	-11.0874
▁extraction	-11.0874
▁breakfast	-11.0875
▁Anti	-11.0875
▁reptiles	-11.0875
▁wool	-11.0876
▁buildup	-11.0876
▁episode	-11.0876
▁firms	-11.0879
▁owe	-11.088
▁Watch	-11.0885
▁2004	-11.0888
▁vertebrates	-11.0888
▁performs	-11.089
espite	-11.0893
▁145	-11.0902
▁saving	-11.0905
do	-11.091
▁relate	-11.091
▁belly	-11.0916
j	-11.0917
▁clusters	-11.0931
▁renew	-11.0938
▁brass	-11.0942
▁Christmas	-11.0947
▁crucial	-11.0947
▁bankruptcy	-11.0947
▁durable	-11.0947
▁understood	-11.0948
▁eBay	-11.0949
▁chlorine	-11.095
▁Sydney	-11.0951
▁trading	-11.0951
▁meiosis	-11.0953
▁presented	-11.0957
▁abilities	-11.0958
▁braces	-11.0959
▁atrium	-11.0961
▁discount	-11.0964
▁125	-11.0967
▁burned	-11.0967
▁1999	-11.0969
▁configuration	-11.0969
▁[2	-11.097
▁transmit	-11.097
▁discussion	-11.0971
▁wants	-11.0973
▁Organization	-11.0973
▁medial	-11.0973
▁translated	-11.0974
▁forensic	-11.0976
▁dealer	-11.0979
▁citizen	-11.0979
▁transform	-11.0983
▁codon	-11.0989
▁Richard	-11.0994
▁min	-11.0995
aq	-11.0998
▁proof	-11.0999
25	-11.1002
▁abbreviated	-11.1007
▁machines	-11.1009
▁sweat	-11.1009
▁2010.	-11.1017
▁Ca	-11.1019
▁Bar	-11.1024
▁rely	-11.1028
▁alloys	-11.1031
%	-11.1031
▁songs	-11.1036
▁cage	-11.1038
▁lawyers	-11.1044
▁expansion	-11.1045
▁dream	-11.1045
▁counties	-11.1046
▁Entry	-11.1046
▁deciliter	-11.1048
▁fertile	-11.105
▁independently	-11.1056
▁rhythm	-11.1059
▁abnormalities	-11.1059
▁Adult	-11.1059
▁PSA	-11.1061
▁39	-11.1065
▁instant	-11.107
▁kilogram	-11.1073
▁thinner	-11.1075
▁router	-11.1078
▁resemble	-11.1082
▁markets	-11.1083
▁Tree	-11.1085
base	-11.1086
▁influences	-11.1087
▁aerobic	-11.1091
▁makeup	-11.1091
▁historic	-11.1093
▁Gas	-11.1094
▁metre	-11.1097
▁Records	-11.1099
▁$600	-11.1101
click	-11.1101
▁posts	-11.1101
▁defects	-11.1105
▁climates	-11.1123
▁tigers	-11.1123
Saudi	-11.1125
▁merge	-11.1131
▁worm	-11.1134
▁Sir	-11.1137
▁climb	-11.1139
▁mosquito	-11.1141
▁graduates	-11.1141
▁Castle	-11.1142
▁reflux	-11.1142
▁ferritin	-11.1142
▁assistance	-11.1143
▁fought	-11.1143
▁impossible	-11.1143
▁Commercial	-11.1143
▁charcoal	-11.1144
▁Living	-11.1145
era	-11.1145
▁diversity	-11.1145
▁neither	-11.1145
▁Northwest	-11.1146
▁Joseph	-11.1146
▁Maryland	-11.1149
▁overweight	-11.1149
▁credits	-11.1152
CO	-11.1154
▁broth	-11.1154
▁Pork	-11.1155
▁Account	-11.1156
▁wondering	-11.1156
▁capture	-11.1157
▁doors	-11.1159
Fi	-11.116
▁efforts	-11.1164
▁technically	-11.1164
▁permits	-11.1165
▁printing	-11.1169
tion	-11.1171
▁altitude	-11.1172
▁microwave	-11.1176
▁bars	-11.1177
▁inspection	-11.118
▁republic	-11.1181
▁Reading	-11.1184
▁feels	-11.1185
▁seller	-11.119
▁sessions	-11.1194
▁Consider	-11.1196
▁appliances	-11.1199
▁Tips	-11.1199
▁league	-11.12
▁intervals	-11.1209
▁$30,000	-11.1214
▁approximate	-11.1218
▁(10	-11.1226
▁representation	-11.123
▁Mississippi	-11.1235
▁heavily	-11.1241
▁Policy	-11.1241
▁Sweden	-11.1241
▁versatile	-11.1241
▁Governor	-11.1242
▁serotonin	-11.1243
▁Jesus	-11.1244
▁RN	-11.1245
▁Acute	-11.1245
▁bipolar	-11.1245
▁Tuition	-11.1245
▁originating	-11.1245
▁dough	-11.1247
▁proven	-11.1247
▁Primary	-11.1247
▁glue	-11.1247
▁slight	-11.1248
ist	-11.1248
▁Main	-11.1248
▁horizontal	-11.1251
In	-11.1255
▁compression	-11.126
▁equally	-11.126
▁cyst	-11.1264
▁ER	-11.1265
▁miscarriage	-11.1265
▁striated	-11.1265
▁stimulate	-11.1265
▁termed	-11.1267
▁perception	-11.1267
▁candidate	-11.1267
▁protocol	-11.1267
▁grasslands	-11.1267
▁conjunction	-11.127
▁partners	-11.1272
▁shed	-11.1275
et	-11.1277
▁sister	-11.1283
▁connecting	-11.1301
▁pools	-11.1303
▁AD	-11.1305
▁aging	-11.1315
▁whos	-11.1319
versus	-11.1325
▁alter	-11.1333
▁divorce	-11.1338
▁precise	-11.1339
▁harsh	-11.1339
▁mini	-11.1341
▁Queensland	-11.1341
▁scalp	-11.1342
▁stability	-11.1343
▁Kansas	-11.1343
2,	-11.1343
▁blow	-11.1343
▁completing	-11.1345
▁saturation	-11.1345
▁refrigerated	-11.1345
▁Agriculture	-11.1346
where	-11.1346
▁Rose	-11.1347
▁surgeons	-11.1347
▁hidden	-11.1347
▁failed	-11.135
▁butterfly	-11.135
▁Hawaiian	-11.1354
▁creatine	-11.1362
▁hCG	-11.1365
▁customs	-11.1366
▁Foundation	-11.1366
▁cedar	-11.1366
▁Surface	-11.1367
▁attraction	-11.1369
▁athlete	-11.137
▁trim	-11.137
▁News	-11.1377
▁aquatic	-11.1379
▁airways	-11.1383
▁campus	-11.1383
▁greens	-11.1385
▁establish	-11.1385
▁pronoun	-11.1388
controlling	-11.1388
ha	-11.1393
▁fed	-11.1395
▁Male	-11.1401
▁oak	-11.1405
▁bears	-11.1407
▁visits	-11.1407
▁VA	-11.1414
▁engines	-11.1417
used	-11.1422
▁TO	-11.1423
▁premiums	-11.1423
▁towns	-11.1423
▁correspond	-11.1425
▁plug	-11.1426
▁import	-11.1426
▁needle	-11.1438
▁transverse	-11.144
▁substantial	-11.1443
▁Lyme	-11.1443
▁bedroom	-11.1444
▁Wilson	-11.1444
▁Passport	-11.1444
▁dehydration	-11.1444
▁audio	-11.1444
▁husband	-11.1447
▁Requirements	-11.1448
▁introduce	-11.145
▁Missouri	-11.1453
ty	-11.1454
▁Eating	-11.1455
▁timing	-11.1455
▁patch	-11.1459
▁debate	-11.146
▁separately	-11.1461
▁Chart	-11.1465
▁cured	-11.1467
▁massage	-11.1469
▁evaluation	-11.147
▁hardwood	-11.147
▁trend	-11.147
▁experiment	-11.1471
▁Representatives	-11.1471
▁Level	-11.1479
▁oppose	-11.1481
▁#1	-11.1481
▁Maine	-11.1483
▁Female	-11.1484
▁66	-11.1487
▁capsules	-11.149
▁theories	-11.1491
▁EU	-11.1494
grade	-11.1495
▁viewed	-11.1498
▁extending	-11.1504
▁invasive	-11.1507
▁gate	-11.1516
▁club	-11.1517
care	-11.1518
▁driven	-11.1523
▁Know	-11.1525
▁dynamic	-11.1532
pronounced	-11.1538
▁eruptions	-11.1538
▁attract	-11.154
▁actress	-11.1543
Noun	-11.1544
▁prokaryotic	-11.1544
▁urination	-11.1544
▁$18	-11.1545
▁reacts	-11.1547
▁Antonio	-11.1547
they	-11.1547
body	-11.1548
▁planned	-11.1548
▁spinach	-11.1551
▁cluster	-11.1551
▁methane	-11.156
▁restore	-11.1564
▁Candida	-11.1566
▁plumbing	-11.1568
▁calendar	-11.1571
▁residence	-11.1572
▁Degree	-11.1574
▁clause	-11.1574
▁samples	-11.1574
▁clotting	-11.1574
▁Gram	-11.1576
▁Lean	-11.1584
▁Dry	-11.1587
▁packed	-11.1588
▁boiler	-11.159
▁thoughts	-11.1594
▁reflex	-11.1595
▁evergreen	-11.1597
▁towel	-11.1598
▁asking	-11.1604
▁comfort	-11.1606
▁isotopes	-11.1617
▁$70	-11.1617
▁kits	-11.1622
▁mucosa	-11.1626
▁shift	-11.1632
▁Chronic	-11.1632
▁Used	-11.1634
▁builds	-11.1638
▁fossils	-11.1638
▁slices	-11.1638
▁transactions	-11.1641
▁porch	-11.1642
▁Compare	-11.1642
▁factory	-11.1645
▁18,	-11.1646
▁easiest	-11.1647
▁apparatus	-11.1647
▁physiological	-11.1648
▁nautical	-11.1649
be	-11.1649
▁Agency	-11.1649
▁PayScale	-11.1649
▁Third	-11.165
▁calf	-11.1653
▁Uranus	-11.1654
▁increasingly	-11.1656
▁journey	-11.1657
▁Czech	-11.1658
▁feminine	-11.166
ization	-11.166
▁intermediate	-11.1661
▁Download	-11.1662
▁Peter	-11.1666
▁goats	-11.1668
▁concepts	-11.1669
▁blog	-11.1669
▁arrive	-11.167
▁Species	-11.1671
▁Period	-11.1672
▁neighborhood	-11.1676
▁Philippines	-11.1678
▁village	-11.1679
top	-11.1685
▁hyper	-11.1689
▁priced	-11.1694
▁Drink	-11.1697
▁abbreviation	-11.1697
▁consuming	-11.1698
▁Love	-11.1698
ble	-11.1698
▁Lymph	-11.1701
▁Reported	-11.1702
▁Ver	-11.1704
▁spasms	-11.1705
▁Oxygen	-11.1711
▁honor	-11.1713
▁Continue	-11.1713
▁Reduce	-11.1728
▁finishing	-11.1729
▁divisions	-11.1729
▁displays	-11.1732
▁actin	-11.1736
▁conditioner	-11.1739
▁showed	-11.1741
▁lightly	-11.1744
▁unwanted	-11.1752
▁qualities	-11.1752
▁Immigration	-11.1754
back	-11.1754
▁collectively	-11.1755
ro	-11.1756
▁Toronto	-11.1756
▁Climate	-11.1758
▁revealed	-11.1758
▁Internal	-11.1758
▁60%	-11.176
▁classical	-11.176
▁Training	-11.176
▁berries	-11.176
▁supplied	-11.1762
▁fermented	-11.1763
▁adenine	-11.1766
▁Whole	-11.1767
▁Effects	-11.177
▁Key	-11.1771
▁se	-11.1771
▁cystic	-11.1774
size	-11.1777
▁invasion	-11.1779
▁genetics	-11.1779
▁vacation	-11.1779
▁doubt	-11.1783
▁particle	-11.1784
▁Help	-11.1787
▁sealed	-11.1789
forming	-11.1792
▁operated	-11.1798
▁bio	-11.1801
▁canned	-11.1804
▁Computer	-11.1804
▁sending	-11.1811
▁hypertension	-11.1813
▁$800	-11.1815
▁Hill	-11.1821
scale	-11.1821
pocket	-11.1823
▁Forest	-11.1829
ol	-11.1831
▁ml	-11.1841
90	-11.1845
wide	-11.1846
▁win	-11.1848
▁1940	-11.1848
▁soak	-11.1848
▁dirt	-11.1849
▁sells	-11.185
▁Tile	-11.1851
▁remedy	-11.1857
▁debris	-11.1857
▁ganglia	-11.1858
▁Territory	-11.1859
▁heavier	-11.1859
▁handling	-11.1861
▁preparing	-11.1861
▁suddenly	-11.1861
ING	-11.1863
▁Auto	-11.1864
▁Anglo	-11.1864
▁Country	-11.1864
▁bonuses	-11.1865
▁facilitate	-11.1865
▁Denmark	-11.1865
▁Overall	-11.1867
▁Xanax	-11.1867
▁inhabit	-11.1868
▁melanin	-11.1869
▁sucrose	-11.187
▁Romeo	-11.1872
▁interfere	-11.1872
▁Tap	-11.1873
▁con	-11.1873
▁1880	-11.1873
ex	-11.1877
▁explained	-11.188
▁differential	-11.1882
cal	-11.1882
▁fortified	-11.1885
▁award	-11.1886
▁pollen	-11.1888
▁coins	-11.1891
▁indication	-11.1893
▁threat	-11.1895
▁chop	-11.1896
▁diets	-11.1906
▁Persian	-11.1907
▁magic	-11.1908
▁fillets	-11.1909
fat	-11.1909
▁behavioral	-11.1923
▁subunits	-11.1926
men	-11.1928
▁shops	-11.1935
▁malaria	-11.1947
▁Malaysia	-11.1951
▁Visit	-11.1956
▁gym	-11.1963
▁metamorphic	-11.1963
▁fetus	-11.1964
▁exclusively	-11.1967
▁Syndrome	-11.1967
▁NBA	-11.1968
▁packaging	-11.1968
▁virtually	-11.197
▁Similar	-11.1971
▁litter	-11.1971
▁virtual	-11.1976
▁grasses	-11.1979
point	-11.1985
▁dissolve	-11.1985
▁kilowatt	-11.1985
▁2002	-11.1986
▁aqueous	-11.1987
▁shoulders	-11.1989
▁drama	-11.1992
▁departure	-11.1993
▁explanation	-11.1996
▁tubular	-11.1996
▁Eye	-11.1997
15	-11.1999
▁decade	-11.2
▁Article	-11.2
▁argue	-11.2001
average	-11.2002
▁Video	-11.2005
▁NY	-11.2009
enstrual	-11.2016
▁banking	-11.2026
▁twin	-11.2026
pm	-11.2032
▁15,	-11.2035
▁kilograms	-11.2045
▁13,	-11.2045
▁wider	-11.2049
▁17,	-11.2049
▁burns	-11.2051
▁era	-11.2051
▁sour	-11.2053
II	-11.2065
▁fits	-11.2066
llowing	-11.2071
▁supervision	-11.2071
▁Dark	-11.2072
▁seasons	-11.2072
▁flexibility	-11.2073
▁Express	-11.2073
▁latter	-11.2075
▁buried	-11.2077
▁Five	-11.2078
responsibilities	-11.2078
▁$350	-11.208
counter	-11.2084
▁contractors	-11.2087
▁silica	-11.2088
▁Fee	-11.2091
▁1/3	-11.2092
▁metric	-11.2093
▁soldiers	-11.2095
▁2-	-11.2095
▁reproduce	-11.2098
▁clinic	-11.21
▁95	-11.2101
▁Kidney	-11.2102
▁tubule	-11.2106
▁tourist	-11.2109
▁tectonic	-11.2111
▁renewal	-11.2111
▁exercises	-11.2113
▁evening	-11.2114
▁Bob	-11.2116
▁chips	-11.2126
▁alive	-11.213
▁creatures	-11.213
▁phenotype	-11.2133
▁Systems	-11.2135
▁fried	-11.2135
positive	-11.2136
▁5,000	-11.2138
▁2,	-11.214
brain	-11.2142
▁Cl	-11.2146
▁wastes	-11.2154
▁knows	-11.2156
▁Beta	-11.2157
▁Sprinkle	-11.2158
▁brine	-11.216
ter	-11.2161
▁beds	-11.2163
▁twist	-11.2164
▁Southwest	-11.2165
▁interactions	-11.2167
▁representatives	-11.217
▁Elizabeth	-11.2172
▁Confiden	-11.2173
▁Fiber	-11.2175
▁Besides	-11.218
▁twelve	-11.218
▁cerebellum	-11.2182
▁geography	-11.2182
▁Portugal	-11.2182
▁Harry	-11.2182
▁omega	-11.2182
▁Neptune	-11.2184
▁bacon	-11.2185
▁costing	-11.2185
▁agricultural	-11.2186
▁Stir	-11.2186
▁slavery	-11.2186
▁Limited	-11.219
▁perfectly	-11.219
▁hiring	-11.2191
▁pocket	-11.2199
▁traditions	-11.22
▁Stock	-11.22
▁fail	-11.2205
▁Brain	-11.2206
▁SAT	-11.2208
▁Avoid	-11.2209
▁overview	-11.2213
▁21,	-11.2214
▁campaign	-11.2214
▁Professor	-11.2214
▁interval	-11.2219
▁jet	-11.2219
▁lizard	-11.2221
▁trust	-11.2222
▁participate	-11.2224
▁bugs	-11.2229
▁fabrics	-11.2229
▁Development	-11.223
▁daytime	-11.2233
▁DIY	-11.2234
▁identifying	-11.2235
▁DC	-11.2237
▁Side	-11.2239
▁processor	-11.224
▁pills	-11.2242
▁backup	-11.2244
▁planting	-11.2245
▁2001	-11.2248
▁follicles	-11.225
▁posted	-11.2253
bound	-11.2253
▁pea	-11.2253
▁cracks	-11.2256
▁Process	-11.2258
▁TSH	-11.2264
▁49	-11.2265
▁log	-11.2267
▁Mr	-11.2272
▁Pet	-11.2272
Latin	-11.2274
▁sinus	-11.2276
▁iris	-11.2285
▁taught	-11.229
▁pelvis	-11.229
▁maturity	-11.229
▁Alzheimer	-11.2291
▁endurance	-11.2292
▁Regular	-11.2292
▁audit	-11.2293
▁uncovered	-11.2294
▁Drive	-11.2295
▁pharynx	-11.2295
▁tenderness	-11.2295
containing	-11.2295
▁obesity	-11.2296
▁availability	-11.2296
▁strips	-11.2296
▁bloom	-11.2298
▁£	-11.23
▁Singapore	-11.2301
▁therapeutic	-11.2301
▁Summer	-11.2303
▁4-6	-11.2315
▁Starting	-11.232
▁discussed	-11.2322
▁Again	-11.2323
▁ecosystem	-11.2325
▁Calculator	-11.2326
▁enterprise	-11.2328
▁ribose	-11.2329
▁Student	-11.233
▁guests	-11.2331
▁potent	-11.2338
▁tenant	-11.2341
▁mo	-11.2341
▁weighing	-11.2343
▁Ground	-11.2344
▁hide	-11.2345
▁Andes	-11.2351
▁listen	-11.2354
▁Block	-11.2362
▁flags	-11.2364
▁fell	-11.2381
▁converting	-11.2386
▁375	-11.2392
round	-11.2394
▁statistical	-11.2396
▁900	-11.2397
▁vegetation	-11.24
▁variants	-11.2402
▁Cardiac	-11.2403
▁reddish	-11.2403
▁Currently	-11.2403
▁lesson	-11.2403
▁Anthony	-11.2406
▁expired	-11.2407
▁leak	-11.2408
▁lesser	-11.241
ka	-11.241
▁supposed	-11.241
▁attracted	-11.2415
▁guaranteed	-11.2417
▁cargo	-11.2419
▁tub	-11.2419
▁strategic	-11.242
▁fructose	-11.2421
▁inexpensive	-11.2421
▁jury	-11.2423
▁displayed	-11.2423
▁limitations	-11.2425
▁rows	-11.2433
▁goat	-11.2437
▁Legal	-11.2438
▁Diseases	-11.2439
▁distant	-11.244
▁triangle	-11.2441
▁sink	-11.2441
▁crab	-11.2441
▁relations	-11.2442
▁launch	-11.2442
▁isotope	-11.2443
▁cereal	-11.2443
▁array	-11.2446
▁folk	-11.245
▁buffer	-11.2452
▁ma	-11.2452
▁donor	-11.246
▁20,000	-11.2461
▁DVD	-11.2466
▁clan	-11.2468
▁limb	-11.2471
▁1930	-11.2475
▁ID	-11.2476
ns	-11.2476
▁stations	-11.2478
▁Ad	-11.2482
▁Corn	-11.2485
▁lined	-11.2491
▁spin	-11.2491
▁vice	-11.2491
▁Supplement	-11.2499
▁ancestors	-11.2501
▁alkali	-11.2508
▁admitted	-11.2512
▁vanilla	-11.2513
▁Potassium	-11.2513
▁Pregnancy	-11.2513
▁CostHelper	-11.2513
ay	-11.2514
▁Head	-11.2515
▁stiff	-11.2516
▁itchy	-11.2516
▁freezing	-11.2517
▁haploid	-11.2517
▁Heritage	-11.2517
▁acetate	-11.2518
▁equilibrium	-11.252
▁Arkansas	-11.2522
▁sandwich	-11.2523
▁NFL	-11.2524
▁bi	-11.2525
▁1.2	-11.2526
▁Commonwealth	-11.2527
▁automatic	-11.2528
▁Orlando	-11.2529
▁degenerative	-11.253
▁stretches	-11.2532
▁bulb	-11.2533
▁directory	-11.2535
▁happened	-11.2535
▁Global	-11.2535
▁microorganisms	-11.2536
▁wasn	-11.2539
▁Centre	-11.2539
▁reflects	-11.2543
▁Tom	-11.2545
▁ad	-11.2547
▁deviation	-11.2551
▁totem	-11.2551
▁gained	-11.2552
▁Catholic	-11.2553
▁bike	-11.2563
▁Signs	-11.2564
▁porcelain	-11.2568
▁plantar	-11.2572
▁albumin	-11.2574
▁comments	-11.2575
▁roses	-11.2576
ED	-11.2579
▁NO	-11.2583
▁3,000	-11.2586
▁sends	-11.2594
▁$11	-11.2601
▁answered	-11.2602
▁cone	-11.2605
▁fibres	-11.2606
▁2016	-11.2609
specific	-11.261
▁brakes	-11.261
▁camp	-11.2612
▁vocal	-11.2612
▁accumulate	-11.2612
ee	-11.2614
▁shore	-11.2616
▁subjects	-11.2617
▁soups	-11.2618
▁Cape	-11.2619
century	-11.2626
▁Famous	-11.2626
▁susceptible	-11.2626
▁Indeed	-11.2627
▁personnel	-11.2627
▁implantation	-11.2629
▁titanium	-11.2631
▁Fresh	-11.2632
▁spreading	-11.2634
▁experiencing	-11.2637
▁Quality	-11.2638
▁goose	-11.2641
▁Medicaid	-11.2643
▁sclerosis	-11.2643
▁crack	-11.2645
▁aloe	-11.2653
▁separation	-11.2656
▁axons	-11.2658
▁sight	-11.2658
▁encourage	-11.2661
▁Engineer	-11.2663
▁audience	-11.2665
▁invest	-11.2666
▁14,	-11.2667
▁keyboard	-11.2667
▁objective	-11.2669
▁tone	-11.2673
▁subunit	-11.2676
▁matters	-11.268
▁renewable	-11.2682
▁constitutional	-11.2689
▁exceptions	-11.269
▁vine	-11.269
70	-11.2691
▁del	-11.2694
▁originates	-11.2696
carotene	-11.2709
▁warming	-11.2718
▁jump	-11.2722
▁diploma	-11.2727
▁Temperatures	-11.2738
da	-11.2739
▁tour	-11.2739
▁felony	-11.2741
▁Finally	-11.2743
▁Ben	-11.2744
▁destruction	-11.2744
▁Software	-11.2744
▁literary	-11.2744
▁identifies	-11.2744
▁solely	-11.2745
▁Quebec	-11.2746
▁dropped	-11.2746
▁voluntary	-11.2747
▁postage	-11.2747
▁evolution	-11.2751
▁altered	-11.2753
▁financing	-11.2754
▁1°	-11.2754
▁serous	-11.2754
▁measles	-11.2755
▁stimulation	-11.2755
ah	-11.2756
▁Plate	-11.2756
▁remodel	-11.2758
▁english	-11.2759
▁attending	-11.2762
▁Function	-11.2763
1,	-11.2765
▁sauces	-11.2769
go	-11.2769
▁collecting	-11.2772
mon	-11.2774
▁kit	-11.2781
▁conduit	-11.2781
▁Advantage	-11.2782
▁emotions	-11.2784
▁maple	-11.2785
▁jail	-11.2786
▁aneurysm	-11.2787
▁220	-11.2789
▁syllables	-11.2791
▁accent	-11.2793
▁Along	-11.2794
▁assessment	-11.2794
▁1971	-11.2802
▁Flag	-11.2802
▁ha	-11.2804
▁soul	-11.2805
▁van	-11.2806
▁germ	-11.2808
▁crest	-11.2813
▁mixing	-11.2815
▁node	-11.2815
tympanic	-11.2817
OH	-11.2824
▁Students	-11.2824
any	-11.2828
carbon	-11.2829
▁Democrat	-11.283
▁yes	-11.2831
▁keys	-11.2832
▁strict	-11.2838
▁responses	-11.2841
▁Base	-11.2842
▁1919	-11.2843
▁Silver	-11.2847
only	-11.2849
▁coarse	-11.285
▁mattress	-11.2852
▁french	-11.2856
▁Revolution	-11.2857
▁Doctors	-11.2858
▁saucepan	-11.2858
▁Bruce	-11.2858
▁radon	-11.2858
▁restrict	-11.2859
▁thoroughly	-11.2859
▁palsy	-11.286
▁cinnamon	-11.286
▁Roosevelt	-11.286
▁tickets	-11.286
▁spicy	-11.286
▁machinery	-11.2861
▁Instructions	-11.2864
▁managing	-11.2865
▁loosely	-11.2865
▁combustion	-11.2867
▁expanded	-11.2868
▁aluminium	-11.2868
▁lighting	-11.2873
▁spelled	-11.2877
▁41	-11.2877
▁clock	-11.288
▁Options	-11.288
▁flights	-11.2884
▁Import	-11.2893
▁warmer	-11.2893
▁digested	-11.2895
▁remained	-11.2896
▁opens	-11.29
▁appointment	-11.29
▁defect	-11.2902
▁marginal	-11.2902
▁peanut	-11.2902
▁resort	-11.2904
▁aquarium	-11.2904
▁ribbon	-11.2905
▁scope	-11.2909
])	-11.291
▁soils	-11.2911
▁smoker	-11.2917
▁bumps	-11.2917
low	-11.2919
▁corporations	-11.2927
▁suit	-11.2927
▁demonstrate	-11.2928
▁occurrences	-11.2928
▁holder	-11.2938
▁Port	-11.2951
▁mate	-11.2955
▁angina	-11.2959
▁Bio	-11.296
▁veterinarians	-11.2961
▁beliefs	-11.2965
▁supported	-11.2974
▁Austin	-11.2976
▁elsewhere	-11.2976
▁entities	-11.2976
▁merely	-11.2976
▁describing	-11.2977
▁reads	-11.2977
▁dramatic	-11.2977
▁democratic	-11.2977
▁suspended	-11.2979
▁Houston	-11.298
▁reviews	-11.298
▁Milk	-11.298
▁vena	-11.2981
▁tray	-11.2982
▁proximal	-11.2984
▁lumbar	-11.2985
▁discrimination	-11.2985
▁troops	-11.2987
▁backbone	-11.2987
▁osteoarthritis	-11.2988
▁inhabitants	-11.2989
▁IQ	-11.2989
▁poisonous	-11.2993
▁75%	-11.2994
▁Portuguese	-11.2997
▁streams	-11.2999
▁architectural	-11.3
▁Le	-11.3002
▁connections	-11.3004
▁ash	-11.3006
▁crisp	-11.3008
▁conducting	-11.301
ur	-11.301
▁Schools	-11.301
▁taxable	-11.3011
▁burial	-11.3011
▁autosomal	-11.3011
▁microscope	-11.3012
▁monitoring	-11.3012
▁architect	-11.3018
-2	-11.302
il	-11.3022
▁Risk	-11.3023
bringing	-11.3023
▁passenger	-11.3024
▁shrub	-11.3024
▁wearing	-11.3024
▁weekend	-11.3027
▁pilot	-11.3027
cetic	-11.3029
▁56	-11.3029
▁stain	-11.3033
▁antigens	-11.3034
▁gout	-11.3037
hand	-11.3038
▁Insert	-11.3043
▁beverage	-11.3044
▁reader	-11.305
Figure	-11.3054
▁payable	-11.3055
▁12-	-11.3056
▁speeds	-11.3061
▁8,	-11.3064
▁Americas	-11.307
▁ceilings	-11.3072
▁Personal	-11.3072
▁simmer	-11.3076
▁upload	-11.3077
▁hat	-11.3077
▁Jan	-11.3089
q	-11.309
▁Diego	-11.3094
▁glaucoma	-11.3094
▁nucleolus	-11.3094
▁Unfortunately	-11.3094
▁livestock	-11.3095
▁utilize	-11.3096
▁indoors	-11.3097
▁Transport	-11.3097
▁cervix	-11.3097
▁expiration	-11.3099
▁withdraw	-11.3099
▁thickest	-11.3099
some	-11.31
field	-11.3102
▁compiled	-11.3104
▁seats	-11.3105
▁Costa	-11.3106
▁Mo	-11.3106
▁RE	-11.3107
▁actors	-11.3108
▁Little	-11.311
▁thyroxine	-11.311
▁videos	-11.3114
▁shots	-11.3116
▁approaches	-11.3117
▁Which	-11.3117
▁mechanisms	-11.3117
un	-11.3122
▁deeper	-11.3122
▁none	-11.3124
▁germinate	-11.3126
▁treats	-11.3126
▁Times	-11.3126
▁tied	-11.3127
▁Card	-11.3131
▁Settings	-11.3131
person	-11.3131
▁Environmental	-11.3132
izing	-11.3135
▁Aboriginal	-11.3139
▁earthquake	-11.314
▁Executive	-11.314
▁recommendations	-11.3141
▁fault	-11.3142
▁derivative	-11.3142
▁minus	-11.3144
ated	-11.3144
▁peel	-11.3146
▁basket	-11.3146
▁ribosome	-11.3153
▁opioid	-11.3154
dependent	-11.3154
▁prove	-11.3159
▁prescribe	-11.316
▁habits	-11.3162
▁loved	-11.3164
▁vent	-11.3164
▁limbs	-11.3167
▁rounded	-11.3167
▁Six	-11.3168
▁Combine	-11.3171
▁Single	-11.3176
▁households	-11.3181
▁uniform	-11.3185
▁cava	-11.3191
▁wealth	-11.3193
See	-11.3199
▁deserts	-11.3203
▁calculations	-11.3205
▁repeat	-11.3205
▁Floor	-11.3208
▁panic	-11.3208
▁Studies	-11.3215
▁luck	-11.3215
▁possibility	-11.3216
▁dysfunction	-11.3216
▁jelly	-11.3217
making	-11.3219
▁essence	-11.3219
▁hardness	-11.3219
▁mmol	-11.3221
▁1964	-11.3221
▁extensively	-11.3221
▁specify	-11.3221
▁tryptophan	-11.3223
▁aggressive	-11.3223
▁deaths	-11.3225
▁Sodium	-11.3225
▁boneless	-11.3228
▁selective	-11.3229
▁preserved	-11.3229
▁penis	-11.3229
▁arises	-11.3231
▁reserved	-11.3232
▁impaired	-11.3232
▁hypothyroidism	-11.3232
3.	-11.3234
▁cytosine	-11.3234
▁sliced	-11.3236
▁strings	-11.3238
▁abnormally	-11.324
▁ISO	-11.3247
▁managed	-11.3253
▁losing	-11.3254
▁founder	-11.3256
▁Germanic	-11.3256
▁PVC	-11.3257
▁intensive	-11.3258
▁investors	-11.3259
▁Market	-11.3259
▁Hope	-11.3261
▁receipt	-11.3262
▁scientist	-11.3262
▁penicillin	-11.3265
▁operator	-11.3266
▁upgrade	-11.3267
▁Greeks	-11.3269
▁distinction	-11.3271
▁Loan	-11.3276
▁Schedule	-11.3276
14	-11.328
▁delta	-11.3288
pi	-11.3288
▁Made	-11.329
▁Town	-11.3329
▁Pokemon	-11.3337
▁foliage	-11.3337
▁Alexander	-11.3337
▁Connecticut	-11.3337
▁Cholesterol	-11.3337
▁Geography	-11.3337
▁Transcription	-11.3337
▁immunity	-11.3337
▁unemployment	-11.3337
▁brittle	-11.3337
▁embedded	-11.3339
▁medieval	-11.3339
▁Pakistan	-11.334
▁hereditary	-11.3342
▁consistently	-11.3343
▁menopause	-11.3343
▁Minimum	-11.3344
▁considerable	-11.3344
▁harmless	-11.3345
▁involuntary	-11.3347
▁everywhere	-11.3348
▁chiefly	-11.3351
▁Diet	-11.3355
site	-11.336
▁export	-11.3362
▁surprise	-11.3371
▁pros	-11.3373
▁farmers	-11.3375
▁mold	-11.3376
▁vera	-11.3379
DNA	-11.3382
▁grapefruit	-11.3383
▁seasoning	-11.3384
▁dialect	-11.3384
▁reserve	-11.3384
▁Found	-11.3384
▁30,	-11.3389
▁admission	-11.3389
▁accord	-11.3389
▁follicle	-11.339
▁seeking	-11.3391
▁phones	-11.3393
▁singular	-11.3393
two	-11.3403
▁pill	-11.341
▁Rh	-11.3413
ists	-11.3419
▁designer	-11.3421
▁painted	-11.3422
▁Jamestown	-11.3424
▁resembles	-11.3428
▁Close	-11.3431
how	-11.3431
11	-11.3432
▁alcoholic	-11.3436
▁pathways	-11.3437
▁Ice	-11.3438
▁1500	-11.345
▁damages	-11.3452
▁delete	-11.3454
▁INSTANT	-11.346
▁ceremony	-11.346
▁entertainment	-11.3463
▁allergy	-11.3463
▁strategies	-11.3464
▁110	-11.3464
▁bloating	-11.3465
▁Nile	-11.3465
▁Williams	-11.3466
▁sympathetic	-11.3469
▁guanine	-11.347
▁Space	-11.3475
▁95%	-11.3477
▁$1000	-11.348
▁activated	-11.3481
▁partly	-11.3485
▁bottles	-11.3487
▁watching	-11.3495
▁conflict	-11.3496
▁neuro	-11.3497
▁3-5	-11.3497
▁chin	-11.3498
▁dye	-11.3501
▁labels	-11.3502
▁generates	-11.3505
▁Museum	-11.3507
▁wiki	-11.3507
▁grilled	-11.3508
▁liqueur	-11.3508
▁dealing	-11.3509
▁extinction	-11.3509
▁Andrew	-11.351
▁desktop	-11.351
▁civilization	-11.3511
▁steroid	-11.3511
▁wrapped	-11.3512
▁smoked	-11.3512
ish	-11.3512
▁Van	-11.3514
▁pace	-11.3514
▁sofa	-11.3516
▁crowns	-11.3518
▁vector	-11.3518
/)	-11.3519
▁governor	-11.3519
▁thrive	-11.352
▁Members	-11.3521
▁deoxyribose	-11.3521
▁Christ	-11.3525
13	-11.353
▁10-	-11.3531
▁PM	-11.3538
▁relatives	-11.3541
▁Nutrition	-11.3541
▁Sound	-11.3545
▁mailing	-11.3549
▁behaviors	-11.3562
▁pitch	-11.3565
▁damp	-11.357
▁Sever	-11.3575
wood	-11.3578
▁Employment	-11.3585
▁poverty	-11.3585
▁chopped	-11.3585
▁Elvis	-11.3587
▁chlorophyll	-11.3587
▁Theatre	-11.3589
▁voting	-11.3589
▁Israel	-11.3591
▁mosquitoes	-11.3592
▁Background	-11.3593
▁gamma	-11.3593
▁6-8	-11.3594
▁tuna	-11.3595
▁Larger	-11.3597
▁molten	-11.36
▁360	-11.3603
▁climbing	-11.3604
▁mushrooms	-11.3605
▁worst	-11.3607
▁suspect	-11.3609
▁vertebral	-11.3609
▁cracking	-11.361
▁Wind	-11.3616
▁30-	-11.3618
exe	-11.3618
▁labeled	-11.3621
▁assumed	-11.3622
▁mutual	-11.3623
▁Materials	-11.3626
▁placenta	-11.3629
▁primer	-11.3629
▁convention	-11.3629
▁1800	-11.3629
▁scheduled	-11.3629
▁inheritance	-11.363
▁swim	-11.363
▁accident	-11.3631
▁Province	-11.3633
▁plank	-11.3634
▁skull	-11.3634
▁dinner	-11.3635
▁cheetah	-11.3636
light	-11.3636
▁banana	-11.3637
▁biochemical	-11.3637
▁denture	-11.3638
▁nodules	-11.3638
eg	-11.3639
▁broker	-11.364
▁solvent	-11.364
▁designation	-11.3642
▁strengthen	-11.3643
▁roasts	-11.3653
▁;	-11.3655
▁tags	-11.3656
▁sleeping	-11.3658
▁hardy	-11.3661
▁CD	-11.3667
▁distances	-11.3667
▁rated	-11.367
▁generations	-11.367
▁converter	-11.3674
▁chili	-11.3677
▁59	-11.3681
▁Te	-11.3682
▁instances	-11.3684
▁cardio	-11.3684
▁errors	-11.3688
▁$19	-11.369
▁roasted	-11.3692
▁accomplish	-11.3699
▁gifts	-11.3702
▁shoe	-11.3708
▁victory	-11.3712
▁Together	-11.3712
▁prevalent	-11.3712
▁rectum	-11.3712
▁Thursday	-11.3714
▁Minister	-11.3714
▁watt	-11.3715
▁Bermuda	-11.3715
▁Review	-11.3715
▁platinum	-11.3717
▁malignant	-11.3717
▁continuously	-11.3719
▁epilepsy	-11.3719
▁mitosis	-11.3721
▁neurological	-11.3721
▁lands	-11.3722
▁faculty	-11.3722
▁broadly	-11.3723
▁HCG	-11.3724
▁jaundice	-11.3725
▁reimbursement	-11.3725
▁clothes	-11.3725
▁magnets	-11.3727
▁confirmed	-11.3728
▁Complete	-11.3728
▁wiring	-11.3731
▁lock	-11.3735
▁tsp	-11.3739
▁(20	-11.374
▁ongoing	-11.3742
▁OR	-11.3744
▁oats	-11.3747
▁glasses	-11.3751
▁studying	-11.3755
▁Bell	-11.3755
▁addresses	-11.3757
▁Current	-11.3758
▁Bond	-11.376
▁Solomon	-11.3763
▁Real	-11.3765
▁1981	-11.3765
▁occurrence	-11.3765
▁Tip	-11.3768
▁Tuesday	-11.3768
▁allowance	-11.3769
▁upset	-11.377
▁rolling	-11.3771
▁Field	-11.3772
▁expert	-11.3774
ruly	-11.3774
▁Ph	-11.3779
▁destinations	-11.3779
▁Leave	-11.3783
▁mechanics	-11.3784
▁traded	-11.3787
▁bananas	-11.3787
▁3/4	-11.3788
▁j	-11.3788
▁Officer	-11.3789
▁proton	-11.3792
▁opt	-11.3792
▁germs	-11.3802
▁anus	-11.3804
▁hop	-11.3808
▁Grade	-11.3813
▁topics	-11.3816
quality	-11.3817
▁SI	-11.3819
▁Basin	-11.3819
▁couples	-11.382
▁resident	-11.3824
▁facing	-11.3828
▁spends	-11.3831
mRNA	-11.3833
▁License	-11.3834
▁$65	-11.3836
▁Others	-11.3837
▁appendix	-11.384
▁Hair	-11.384
▁footprint	-11.3841
▁drift	-11.3841
▁charts	-11.3841
▁frequencies	-11.3842
effective	-11.3842
▁Denver	-11.3842
▁Cambridge	-11.3842
▁Index	-11.3844
▁thyme	-11.3844
▁biomass	-11.3845
▁regulat	-11.3848
▁Carbohydrates	-11.3848
▁employ	-11.385
▁integrated	-11.3851
▁comprising	-11.3855
▁sensitivity	-11.3855
▁Beef	-11.3856
▁MBA	-11.3858
name	-11.3859
▁quoted	-11.3861
▁Known	-11.3862
▁retained	-11.3866
▁Design	-11.3866
▁Mitochondria	-11.3866
▁localized	-11.3868
▁beam	-11.3873
▁qualifications	-11.3875
▁DO	-11.3875
▁deductions	-11.3876
▁boxes	-11.3878
LY	-11.3884
▁crystalline	-11.3887
▁dimension	-11.389
▁empire	-11.3892
▁suspension	-11.3892
▁entrance	-11.3892
▁bull	-11.3893
▁athletic	-11.3893
pproximately	-11.3894
▁appliance	-11.3897
1.	-11.3902
▁quit	-11.3903
▁rat	-11.3907
▁Connect	-11.3908
▁Active	-11.3913
▁mistaken	-11.3914
4.	-11.3914
▁ran	-11.3921
▁liters	-11.3921
▁9,	-11.3927
▁challenges	-11.3941
▁bodi	-11.3946
▁blades	-11.3946
▁golf	-11.3949
▁Region	-11.3951
▁$700	-11.3969
▁Versailles	-11.397
▁Century	-11.397
▁paralysis	-11.3972
▁diploid	-11.3972
▁molasses	-11.3972
▁retention	-11.3972
▁comparable	-11.3972
▁combining	-11.3973
▁crude	-11.3973
▁52	-11.3973
▁coaches	-11.3974
▁outstanding	-11.3974
▁soccer	-11.3975
▁steady	-11.3975
▁mileage	-11.3975
▁Theory	-11.3977
▁Portland	-11.3978
▁Daily	-11.3978
▁capillary	-11.3978
▁celery	-11.398
▁routing	-11.3981
▁emerged	-11.3982
▁Scientists	-11.3983
▁Kelvin	-11.3983
You	-11.3983
▁ducks	-11.3983
▁myosin	-11.3984
▁arrived	-11.3984
▁symbolic	-11.3984
▁Hindi	-11.3991
▁7.	-11.3992
▁USPS	-11.3993
▁thicker	-11.3993
▁sprouts	-11.3995
,000	-11.3996
▁Silicon	-11.4
▁Welsh	-11.4002
▁melt	-11.4005
▁sausages	-11.4006
▁apps	-11.4009
▁(0.6	-11.4009
▁GA	-11.401
▁existed	-11.4013
▁implement	-11.4014
▁behalf	-11.4015
▁deposition	-11.4016
producing	-11.4019
▁afford	-11.4021
▁Certification	-11.4023
▁1504	-11.4023
▁insect	-11.4024
▁McDonald	-11.4026
▁argument	-11.4026
▁antioxidant	-11.4026
▁script	-11.4027
▁Disorder	-11.4027
▁1975	-11.4027
▁BSN	-11.4028
▁magazine	-11.4029
▁eyelid	-11.4029
story	-11.403
36,	-11.403
house	-11.4034
▁drying	-11.4034
▁Production	-11.4035
▁Meats	-11.4036
▁hairs	-11.4038
▁digits	-11.4039
▁protons	-11.4041
▁Structure	-11.4044
▁guy	-11.4047
half	-11.4047
▁orchid	-11.4049
ey	-11.4052
▁Korean	-11.4063
▁tastes	-11.4064
▁catalyze	-11.407
▁notable	-11.4072
▁pursue	-11.4073
▁Who	-11.4074
▁dress	-11.4078
▁agar	-11.4084
▁2.0	-11.4085
now	-11.4088
▁electrode	-11.4088
▁nucle	-11.4089
family	-11.4091
▁Ethiopia	-11.4097
▁Popular	-11.4098
▁Jobs	-11.4098
▁citrus	-11.4101
▁legislative	-11.4101
▁parietal	-11.4101
▁Aluminum	-11.4101
▁downtown	-11.4104
▁accuracy	-11.4104
▁universe	-11.4104
▁optimum	-11.4104
▁convenience	-11.4104
▁inhalation	-11.4104
▁cerebrum	-11.4104
▁Calculate	-11.4104
▁agriculture	-11.4105
▁Aloe	-11.4105
▁rectal	-11.4106
▁Jews	-11.4106
▁pericardial	-11.4106
▁infrastructure	-11.4107
▁OS	-11.4107
▁binary	-11.4109
▁Switzerland	-11.4109
▁Inuit	-11.4111
▁accessible	-11.4114
▁notably	-11.4116
▁HDMI	-11.4117
▁feathers	-11.4129
▁woven	-11.413
▁Uganda	-11.413
▁(“	-11.4136
▁Factors	-11.4141
▁distal	-11.4145
▁prone	-11.4147
▁killing	-11.4149
▁INR	-11.4149
▁bites	-11.415
▁SIM	-11.4151
▁touching	-11.4151
▁gelatin	-11.4152
▁shelter	-11.4153
▁foster	-11.4153
▁wake	-11.4154
▁spiral	-11.4157
▁Fossil	-11.4158
▁lasting	-11.416
▁Creek	-11.4162
▁disaster	-11.4162
▁dozen	-11.4163
▁tribes	-11.4168
▁warning	-11.417
▁visited	-11.4173
ri	-11.4174
▁Agent	-11.4176
▁eyelids	-11.4177
▁dragon	-11.418
▁promoter	-11.4184
▁Estimate	-11.4185
metal	-11.419
2)	-11.419
▁quiet	-11.4196
▁trail	-11.4204
▁cosmetics	-11.4205
▁Sam	-11.4207
▁moral	-11.4207
▁peaks	-11.4207
▁$40,000	-11.4211
▁Record	-11.4213
▁End	-11.4219
▁plot	-11.4222
▁combinations	-11.4223
▁Think	-11.4224
▁indigen	-11.4228
▁debut	-11.4232
▁sustain	-11.4234
▁corrosion	-11.4235
▁Schlieffen	-11.4235
▁commitment	-11.4235
▁iCloud	-11.4235
▁committed	-11.4235
▁integral	-11.4235
▁Ceramic	-11.4235
▁Still	-11.4236
▁1998	-11.4236
▁apparent	-11.4237
▁consistency	-11.4237
▁YouTube	-11.4237
▁licensure	-11.4237
▁diesel	-11.4238
Q	-11.4238
▁sacred	-11.4238
▁Understanding	-11.4238
▁lentils	-11.4239
▁Alcohol	-11.4239
▁Additionally	-11.4239
▁plumber	-11.424
▁Myanmar	-11.424
▁toxicity	-11.424
▁disposal	-11.424
▁slang	-11.4241
▁indeed	-11.4241
▁descent	-11.4242
▁locate	-11.4243
▁afternoon	-11.4243
▁unpleasant	-11.4244
▁Team	-11.4246
▁counseling	-11.4247
▁populated	-11.4248
▁activation	-11.4257
▁Becom	-11.4262
▁10,	-11.4264
▁curd	-11.4267
▁Se	-11.4268
▁reveal	-11.4271
▁$90	-11.4273
▁Late	-11.4274
▁comment	-11.4275
▁Animals	-11.4277
▁physically	-11.428
▁noticed	-11.428
▁tears	-11.4283
▁Fat	-11.4289
▁investigation	-11.4289
▁formally	-11.4291
▁Around	-11.4291
▁Homes	-11.4291
▁74	-11.4291
▁contributed	-11.4292
▁signaling	-11.4293
▁supplier	-11.4296
▁CAD	-11.4296
▁freely	-11.4296
▁workplace	-11.4297
▁attachment	-11.4297
▁establishment	-11.4298
▁improved	-11.4299
▁booster	-11.43
▁Bull	-11.43
▁strike	-11.4301
▁pyramid	-11.4305
▁Division	-11.4308
▁setup	-11.4317
▁exams	-11.4317
▁regulated	-11.4317
▁en	-11.4318
▁coral	-11.4319
▁blooms	-11.4322
third	-11.4322
▁Meat	-11.4326
ounce	-11.4327
oid	-11.4345
▁Adam	-11.4356
ana	-11.4357
▁quotes	-11.4357
▁flip	-11.4358
▁$13	-11.4362
▁debit	-11.4365
▁parks	-11.4366
▁47	-11.4368
▁references	-11.4369
▁51	-11.4369
▁Cyprus	-11.437
▁prolonged	-11.4371
▁stuck	-11.4372
▁Parliament	-11.4372
▁superficial	-11.4372
▁populous	-11.4372
▁contemporary	-11.4373
▁thickening	-11.4375
▁wolves	-11.4375
▁parenchyma	-11.4375
▁Lewis	-11.4376
▁parasympathetic	-11.4376
▁filtration	-11.4377
▁attributed	-11.4377
▁decreasing	-11.4379
▁emphasis	-11.438
▁Veterinary	-11.4381
▁calculating	-11.4381
▁inflation	-11.4381
▁ventilation	-11.4382
▁ratified	-11.4382
▁chewing	-11.4387
▁Registered	-11.4387
▁teens	-11.439
▁overcome	-11.439
▁Traditionally	-11.4395
▁Hard	-11.4397
▁6-	-11.4397
▁slower	-11.4399
▁Coca	-11.4399
▁harvest	-11.4401
being	-11.441
▁prefix	-11.4413
▁filtering	-11.4414
▁tunnel	-11.4418
▁broadcast	-11.4419
▁bush	-11.4422
18	-11.4422
▁Analyst	-11.4423
▁dispute	-11.4424
▁reputation	-11.4427
▁squid	-11.4431
▁feldspar	-11.4431
▁reservoir	-11.4431
▁ALT	-11.4432
▁festival	-11.4432
▁partnership	-11.4434
▁posture	-11.4434
▁creature	-11.4434
▁publication	-11.4438
▁blockage	-11.4438
▁bundle	-11.4438
▁panda	-11.444
▁Thank	-11.4446
▁LLC	-11.4447
▁random	-11.4451
▁Vice	-11.4453
▁protecting	-11.4455
▁Cross	-11.4458
▁tubules	-11.4465
▁gardens	-11.4465
▁canine	-11.4469
▁85%	-11.4478
erebral	-11.4481
▁borne	-11.4484
▁tracks	-11.4485
meaning	-11.4487
▁gods	-11.4502
▁Staff	-11.4505
▁automotive	-11.4507
▁Hemoglobin	-11.4507
▁Christopher	-11.4507
▁challenging	-11.4507
▁coordination	-11.4508
▁Glucose	-11.4509
▁Neurons	-11.451
▁Vincent	-11.451
▁Similarly	-11.451
▁Psychology	-11.4512
▁sushi	-11.4515
▁hazardous	-11.4515
▁feedback	-11.4516
▁improving	-11.4516
▁deadly	-11.4517
▁Kids	-11.4517
▁Construction	-11.4518
▁gauge	-11.4518
▁parasitic	-11.4519
▁united	-11.4519
▁Consumer	-11.4519
▁Cat	-11.4521
▁spiders	-11.4523
▁manganese	-11.4523
▁pumps	-11.4524
▁acceptable	-11.4524
▁dining	-11.4525
▁xylem	-11.4526
▁registers	-11.4527
▁Self	-11.4528
▁Delta	-11.4532
▁patented	-11.4532
▁sebaceous	-11.4538
▁surround	-11.4544
▁hen	-11.4545
▁movies	-11.4547
▁sheath	-11.4549
▁stimulating	-11.4556
▁gums	-11.4557
▁emerge	-11.4558
traumatic	-11.4558
▁snails	-11.4558
▁cooled	-11.4559
▁pathogenic	-11.4559
▁fame	-11.4564
100	-11.4565
im	-11.4568
di	-11.4568
▁magnitude	-11.457
▁skeleton	-11.4571
▁ointment	-11.4571
▁additive	-11.4572
▁staple	-11.4573
▁intellectual	-11.4573
▁spasm	-11.4574
▁Parts	-11.4575
▁fleet	-11.4575
▁5,	-11.4576
▁theatre	-11.458
▁Eggs	-11.458
▁kid	-11.458
▁Jefferson	-11.4581
▁Saturday	-11.4584
▁antioxidants	-11.4586
▁hydro	-11.4586
▁Soil	-11.4589
▁Career	-11.459
▁stains	-11.4591
▁charter	-11.4597
▁visiting	-11.4599
▁lunch	-11.4606
▁tie	-11.4611
▁coin	-11.4613
▁4)	-11.4615
ti	-11.4617
For	-11.4621
▁chambers	-11.4627
oF	-11.4628
▁roads	-11.463
▁margin	-11.4631
▁SSI	-11.4631
▁Grill	-11.4632
▁sciatic	-11.4632
▁outdoors	-11.4635
▁complement	-11.4635
▁Isla	-11.4635
led	-11.464
▁lobes	-11.4642
▁recreational	-11.4645
▁bamboo	-11.4645
▁Walmart	-11.4645
▁Pittsburgh	-11.4646
▁technologies	-11.4646
▁neonatal	-11.4646
▁sterile	-11.4646
▁Basically	-11.4647
▁Address	-11.4647
▁Lyft	-11.4648
▁thirty	-11.4648
▁170	-11.4648
▁perpendicular	-11.4649
▁physiology	-11.4651
▁velocity	-11.4651
▁Drain	-11.4652
▁Jones	-11.4653
▁ranch	-11.4653
▁doneness	-11.4654
▁niacin	-11.4654
▁chemotherapy	-11.4654
▁origination	-11.4654
▁Miami	-11.4657
▁barbecue	-11.4658
▁outermost	-11.4658
▁Islamic	-11.4659
▁abundance	-11.4659
▁Pulse	-11.4661
▁assuming	-11.4664
▁phrases	-11.4664
▁wing	-11.4667
▁feces	-11.4668
▁Later	-11.4669
form	-11.4669
▁spreads	-11.468
▁pores	-11.4683
▁$55	-11.4683
▁regard	-11.4686
▁urea	-11.4688
▁bell	-11.4689
▁Higher	-11.469
▁preserve	-11.4697
▁liquids	-11.4697
▁developmental	-11.4697
▁Movement	-11.4701
▁concentrate	-11.4702
▁animation	-11.4707
▁masses	-11.4708
▁cabbage	-11.4708
▁resonance	-11.4709
▁hatching	-11.471
▁laptop	-11.4711
▁departments	-11.4713
▁castle	-11.4714
▁watermelon	-11.4714
▁committee	-11.4714
ge	-11.4715
plural	-11.4717
▁Crown	-11.4717
▁Capital	-11.4718
BLS	-11.4719
▁glaze	-11.4719
▁acquire	-11.4719
▁11,	-11.472
▁Spring	-11.4722
▁chef	-11.4726
▁Habitat	-11.4726
▁(5	-11.4729
▁toxin	-11.4729
▁Monet	-11.473
▁Mode	-11.473
▁polysaccharides	-11.4731
▁FL	-11.4746
▁da	-11.4746
▁clinics	-11.4747
▁attractions	-11.475
▁cancel	-11.4755
▁Provide	-11.4757
▁polish	-11.476
▁arsenic	-11.4766
▁scratch	-11.4767
▁hanging	-11.477
▁Send	-11.477
▁buyers	-11.477
▁bran	-11.4782
▁Oct	-11.4782
▁Delaware	-11.4786
▁friction	-11.4786
▁Meanwhile	-11.4786
▁Temperate	-11.4787
▁sclera	-11.4787
▁heartburn	-11.4787
▁permitted	-11.4788
▁Walter	-11.4789
▁Land	-11.479
freezer	-11.4792
▁pokemon	-11.4792
▁obese	-11.4792
▁separating	-11.4792
▁Explorer	-11.4792
▁Tybalt	-11.4798
▁enforcement	-11.4798
▁caught	-11.4798
min	-11.48
▁participants	-11.4801
▁Medium	-11.4801
▁Polish	-11.4805
▁sweating	-11.4806
▁logo	-11.4807
▁taller	-11.4807
▁Pure	-11.4811
▁hunting	-11.4811
▁dorsal	-11.4812
▁initiate	-11.4813
▁PS	-11.4818
▁User	-11.4821
▁insomnia	-11.4822
▁occupations	-11.4826
▁ruler	-11.4832
▁1986	-11.4837
▁invertebrates	-11.4842
▁proportional	-11.4844
▁seeing	-11.4845
▁coloring	-11.4851
▁websites	-11.4853
▁sap	-11.4854
▁coastline	-11.4854
▁impulse	-11.4855
▁platelet	-11.4857
▁monkey	-11.486
▁hydrocarbon	-11.486
▁discipline	-11.4861
▁whites	-11.4862
▁Cats	-11.4865
▁Contacts	-11.4866
▁Contact	-11.4866
▁reactive	-11.4867
▁PA	-11.4871
front	-11.4875
▁stove	-11.4875
unsaturated	-11.4879
good	-11.4879
▁wouldn	-11.488
we	-11.4883
▁chip	-11.489
▁rocky	-11.489
▁neighbor	-11.4902
Cola	-11.4904
▁shouldn	-11.4906
▁draft	-11.4907
▁drains	-11.4908
▁settle	-11.4917
▁transfers	-11.4918
▁2006,	-11.4923
Z	-11.4924
▁22,	-11.4928
▁territories	-11.4929
▁expertise	-11.4929
▁significance	-11.4929
▁recognition	-11.4929
▁ultimate	-11.493
▁landscaping	-11.493
▁Greenland	-11.493
▁alliance	-11.493
▁pouch	-11.4932
▁Ltd	-11.4932
▁Allow	-11.4932
▁payroll	-11.4933
▁$85	-11.4934
▁Oxford	-11.4935
read	-11.4935
▁creative	-11.4936
▁inhaled	-11.4937
▁Rice	-11.4938
▁continuing	-11.4938
▁sliding	-11.4941
▁storing	-11.4942
▁Pad	-11.4943
▁ABC	-11.4943
▁holidays	-11.4943
▁eardrum	-11.4944
▁congenital	-11.4952
▁eliminated	-11.4953
▁Hot	-11.4955
If	-11.4957
▁Expert	-11.4958
▁Upper	-11.4958
▁hyperthyroidism	-11.4959
▁240	-11.4961
▁uterine	-11.4961
▁suited	-11.4962
▁lucky	-11.4966
▁warmth	-11.4967
▁0.3	-11.4968
▁governing	-11.497
▁Speed	-11.4971
▁solids	-11.4972
▁habit	-11.4973
▁pm	-11.4974
▁powered	-11.4975
▁Talk	-11.4975
▁resulted	-11.4977
▁prize	-11.4977
▁frost	-11.4985
▁Jr	-11.4987
▁consequences	-11.4988
although	-11.4992
▁kernel	-11.4998
▁exemption	-11.4999
▁Edward	-11.5002
▁Egg	-11.5003
▁Standards	-11.5003
▁sandstone	-11.5004
▁valley	-11.5005
▁tribe	-11.5007
▁PhD	-11.5008
▁watts	-11.501
▁acronym	-11.5019
paying	-11.5019
▁Republican	-11.5023
▁orbital	-11.5023
▁boards	-11.5028
▁scar	-11.503
▁rhyme	-11.5033
stone	-11.5035
ling	-11.5039
▁diamonds	-11.5042
▁Adults	-11.5043
▁reform	-11.5045
▁filters	-11.5047
boiled	-11.5062
▁31,	-11.5064
▁Proteins	-11.5065
room	-11.5065
▁grout	-11.5068
star	-11.5069
ative	-11.5072
▁iPod	-11.5074
▁Bartholin	-11.5074
▁cremation	-11.5074
▁Escherichia	-11.5074
▁Pharmacy	-11.5074
▁longitudinal	-11.5074
▁headquarters	-11.5075
▁Death	-11.5075
▁scattered	-11.5075
▁surviving	-11.5075
▁sunny	-11.5075
▁ovary	-11.5077
▁croup	-11.5077
▁stopped	-11.5078
▁2%	-11.5078
▁bronchioles	-11.5079
▁fertilized	-11.508
▁Plymouth	-11.508
▁Create	-11.5081
▁opium	-11.5081
▁Through	-11.5081
▁interstiti	-11.5082
▁halfway	-11.5083
▁disabilities	-11.5083
▁strongest	-11.5083
▁Feed	-11.5084
▁humid	-11.5084
▁Mike	-11.5086
▁Manhattan	-11.5086
▁CEO	-11.5087
▁Nepal	-11.5088
▁dermis	-11.5089
▁dome	-11.509
▁calm	-11.5092
▁sediments	-11.5092
service	-11.5094
▁Hg	-11.5097
▁categorized	-11.5098
▁hang	-11.5102
▁(6	-11.5104
▁ferns	-11.5105
▁Acid	-11.5106
▁spoon	-11.5108
▁professionally	-11.5109
▁fry	-11.5109
largest	-11.5109
▁1996	-11.5109
▁tables	-11.5117
▁64	-11.5117
▁differentiate	-11.512
well	-11.512
▁almonds	-11.5123
▁26,	-11.5127
▁hill	-11.5129
▁boats	-11.5129
▁shampoo	-11.5131
▁Hydrogen	-11.5132
minute	-11.5138
▁Collagen	-11.514
refrigerator	-11.5144
air	-11.5146
▁radiologist	-11.5146
lmost	-11.5147
▁AU	-11.5147
▁attempts	-11.5149
▁Mortgage	-11.5149
amiliarity	-11.515
▁Phone	-11.5151
▁topical	-11.5151
▁upward	-11.5153
▁Station	-11.5155
▁Nerve	-11.5156
▁Wayne	-11.5156
▁clams	-11.5157
▁Title	-11.5163
▁Grow	-11.5164
▁dries	-11.5165
▁anatomical	-11.5173
▁dual	-11.5176
▁weed	-11.5178
▁Sa	-11.518
▁dis	-11.518
▁solve	-11.5182
▁Net	-11.5183
protein	-11.5188
home	-11.5189
▁defend	-11.5193
brown	-11.5194
▁Method	-11.5197
▁pointed	-11.5197
run	-11.5199
▁4.0	-11.5201
▁edit	-11.5212
▁pi	-11.5216
▁arrow	-11.5216
▁capita	-11.522
▁Diabetes	-11.5221
▁Industry	-11.5221
▁hydrolysis	-11.5222
▁slender	-11.5222
▁Iowa	-11.5222
▁incurred	-11.5222
▁Reiki	-11.5224
▁vulnerable	-11.5224
▁asparagus	-11.5224
▁Temple	-11.5224
▁Jordan	-11.5224
▁occupy	-11.5225
Advanced	-11.5225
eye	-11.5226
▁pleural	-11.5226
▁Harrison	-11.5227
▁batteries	-11.5228
▁enrolled	-11.5229
ml	-11.5229
▁craft	-11.5229
▁Nearly	-11.523
▁accomplished	-11.5233
▁elderly	-11.5234
▁4,000	-11.5235
▁strep	-11.5235
▁Serve	-11.5237
▁Swahili	-11.5239
▁juvenile	-11.524
▁torn	-11.5245
▁flakes	-11.5248
▁Arc	-11.525
▁printed	-11.5251
▁indigestion	-11.5254
▁(12	-11.5254
▁angles	-11.5255
▁farming	-11.5258
▁taxpayers	-11.5264
▁chloroplasts	-11.5264
▁digit	-11.5266
▁Anne	-11.5267
▁coughing	-11.527
▁frontal	-11.5274
▁Panax	-11.5276
▁corned	-11.5276
▁herbal	-11.528
▁counts	-11.5281
▁installer	-11.5281
▁coats	-11.5281
▁mechanic	-11.5287
▁adoption	-11.5287
right	-11.5288
▁denominator	-11.5289
▁saved	-11.529
▁signature	-11.529
▁inventor	-11.5292
▁synapses	-11.5293
▁originate	-11.5294
class	-11.5294
▁Channel	-11.5294
▁resolution	-11.5295
▁merchant	-11.5296
3,	-11.5297
▁Diamond	-11.5298
▁chapter	-11.5298
▁cuff	-11.5298
▁generator	-11.5301
▁Carpet	-11.5301
▁Raw	-11.5302
▁Trail	-11.531
▁arch	-11.5314
▁polysaccharide	-11.5316
▁drives	-11.5318
ful	-11.5318
stimulating	-11.5319
▁Joint	-11.532
▁kinase	-11.5321
▁cloud	-11.5326
▁trends	-11.5327
▁lizards	-11.5331
▁bleach	-11.534
second	-11.5341
▁sphere	-11.5346
▁summers	-11.5348
▁beet	-11.5349
ni	-11.5354
▁(/	-11.5363
▁Loss	-11.5363
▁constitution	-11.5364
75	-11.5366
▁$500,000	-11.537
▁Macbeth	-11.537
▁captivity	-11.537
▁glomerulus	-11.537
▁Tuberculosis	-11.537
▁sickness	-11.5371
phosphate	-11.5372
▁wildlife	-11.5372
▁Gmail	-11.5372
▁arc	-11.5373
▁broiler	-11.5373
▁diffusion	-11.5374
▁progression	-11.5374
▁decimal	-11.5374
▁Glass	-11.5374
▁passive	-11.5375
▁oppos	-11.5376
▁Multiple	-11.5376
▁submitted	-11.5377
▁tallest	-11.5377
▁unlikely	-11.5378
▁activate	-11.5378
▁lengths	-11.5378
▁incidence	-11.5379
▁Media	-11.5379
▁multicellular	-11.538
▁exert	-11.5381
▁hockey	-11.5382
▁poorly	-11.5382
▁suffix	-11.5383
▁Results	-11.5384
▁mitochondrial	-11.5384
embryonic	-11.5387
▁sustained	-11.5389
▁16,	-11.5389
▁99	-11.539
▁ingestion	-11.5391
▁Mendel	-11.5392
▁Sign	-11.5393
▁prokaryotes	-11.5396
▁hydraulic	-11.5398
without	-11.5405
500	-11.5405
▁Pat	-11.5409
▁sealing	-11.5412
▁actively	-11.5412
▁pl	-11.5414
▁Palm	-11.5414
risk	-11.5414
▁$120	-11.5419
▁engage	-11.5422
even	-11.5428
▁grease	-11.5429
▁artistic	-11.5432
▁12,	-11.5433
▁gear	-11.5437
▁similarly	-11.5438
▁Classification	-11.5443
▁hay	-11.5444
▁Mobile	-11.5444
▁Congo	-11.5446
▁Justice	-11.5446
▁extracts	-11.5449
▁intolerance	-11.5449
▁electrician	-11.5449
▁clearance	-11.5449
▁module	-11.5451
▁inhibitor	-11.5452
growing	-11.5452
▁outlet	-11.5453
▁AB	-11.5453
▁fillet	-11.5454
▁static	-11.5455
▁seasoned	-11.5456
▁trials	-11.5456
▁Electrical	-11.5456
▁Orange	-11.5457
density	-11.5461
▁bump	-11.5464
▁175	-11.5464
kWh	-11.5467
▁Romans	-11.5469
▁wines	-11.5469
▁BTU	-11.5478
▁liter	-11.548
▁simpler	-11.5488
▁3000	-11.5488
▁writers	-11.5494
▁Medi	-11.55
▁rounds	-11.5501
▁clearing	-11.5504
▁incomplete	-11.5506
▁Prior	-11.5507
▁inactive	-11.551
▁com	-11.5518
▁Naples	-11.5522
▁penalties	-11.5522
▁proximity	-11.5522
▁crisis	-11.5522
▁intelligence	-11.5522
▁circumference	-11.5522
▁impressive	-11.5522
▁archipelago	-11.5522
▁Inflammation	-11.5522
▁striking	-11.5522
▁norovirus	-11.5523
▁stirring	-11.5523
▁execution	-11.5524
▁lightweight	-11.5524
▁Crohn	-11.5525
▁luxury	-11.5525
▁Abstract	-11.5525
▁nutritious	-11.5525
▁Juliet	-11.5525
▁Popularity	-11.5525
▁longitude	-11.5526
▁subsidiary	-11.5528
▁femur	-11.5531
▁indicating	-11.5534
▁diastolic	-11.5534
▁hormonal	-11.5535
▁Email	-11.5536
▁RV	-11.5536
▁swallowing	-11.5537
▁windpipe	-11.5538
▁Lady	-11.554
▁blisters	-11.5541
borne	-11.5542
▁Arabian	-11.5543
▁sticky	-11.5544
▁guides	-11.5547
▁rodents	-11.5552
▁transcribed	-11.5555
▁venomous	-11.5556
▁approx	-11.5559
▁collects	-11.5563
just	-11.5563
▁Individuals	-11.5569
▁pseudo	-11.5571
▁polyps	-11.5571
▁anchor	-11.5573
▁(3)	-11.5573
▁Healthy	-11.5574
▁Fast	-11.5574
▁tours	-11.5574
▁(16	-11.5577
▁faith	-11.5579
▁engineered	-11.558
▁sweeteners	-11.5583
▁wheels	-11.5585
▁titles	-11.5586
gram	-11.5587
▁hurt	-11.5591
typically	-11.5597
▁railroad	-11.56
▁implementation	-11.56
▁forearm	-11.5601
▁synapse	-11.5601
▁Learning	-11.5602
▁62	-11.5604
▁Purchase	-11.5604
▁offense	-11.5605
▁Jose	-11.5608
▁dyes	-11.5609
▁transformation	-11.5609
▁cu	-11.561
▁Patient	-11.561
▁ulcer	-11.5612
▁petition	-11.5616
▁releasing	-11.5618
▁Award	-11.5622
▁$1,200	-11.5623
▁44	-11.5625
▁obstruction	-11.5629
▁operators	-11.563
▁searching	-11.5635
▁specially	-11.5638
▁scapula	-11.5644
▁IN	-11.5646
▁CH	-11.5648
▁5000	-11.5655
▁Li	-11.5661
▁containers	-11.5667
▁tibia	-11.5671
▁000	-11.5674
▁Deep	-11.5674
▁psyllium	-11.5676
▁guidance	-11.5676
▁albinism	-11.5676
▁terminology	-11.5676
▁diminutive	-11.5676
▁sociology	-11.5676
▁$450	-11.5676
▁mortality	-11.5676
▁Alternatively	-11.5677
▁priority	-11.5678
▁anthrax	-11.5678
▁council	-11.5679
▁Lawrence	-11.5679
▁malnutrition	-11.5679
▁remedies	-11.5679
▁PT	-11.5679
▁Islam	-11.5679
▁presidential	-11.568
my	-11.5681
▁colitis	-11.5681
▁exciting	-11.5682
▁geometric	-11.5682
▁copied	-11.5682
▁enrollment	-11.5682
▁ventricles	-11.5684
▁Seven	-11.5685
▁Highway	-11.5685
▁Characteristics	-11.5685
▁fencing	-11.5686
▁1900	-11.5688
▁63	-11.5688
▁Kenya	-11.5688
▁Maximum	-11.5688
▁ranking	-11.569
▁fluoride	-11.5691
▁optional	-11.5692
▁Complex	-11.5693
tax	-11.5693
▁permanently	-11.5694
▁Rocky	-11.5694
▁EDTA	-11.5695
▁Database	-11.5695
▁violent	-11.5698
▁primates	-11.5698
▁Carl	-11.5701
▁tolerance	-11.5703
depending	-11.5704
▁restrictions	-11.5706
▁yields	-11.5707
▁Liver	-11.5708
▁amber	-11.571
▁hives	-11.571
▁diapers	-11.5711
cell	-11.5713
▁Graduate	-11.5715
▁clicking	-11.5736
▁steer	-11.5737
living	-11.5738
▁trucks	-11.5739
▁Sweet	-11.5741
▁packaged	-11.5741
▁WA	-11.5741
▁equate	-11.5744
▁Electric	-11.5744
▁classify	-11.5745
▁servers	-11.5745
▁tech	-11.5746
▁danger	-11.5751
▁edition	-11.5753
li	-11.5754
▁Physician	-11.5757
▁borrower	-11.5759
▁4.5	-11.5759
▁inhibitors	-11.5759
▁interpretation	-11.576
▁guys	-11.5762
▁st	-11.5762
▁losses	-11.5762
▁flavors	-11.5763
▁Thanks	-11.5764
▁coordinate	-11.5771
lb	-11.5771
▁lasted	-11.5779
▁beings	-11.578
▁storm	-11.5781
▁mins	-11.5783
▁vines	-11.5784
product	-11.5784
▁workout	-11.5794
▁na	-11.5796
▁airlines	-11.5803
▁guess	-11.5806
▁hunt	-11.5806
▁Rain	-11.5808
▁tower	-11.581
▁hemispheres	-11.5811
▁1995	-11.5811
▁pleasant	-11.5812
▁viewing	-11.5814
▁Jim	-11.5817
▁Soul	-11.5819
AL	-11.582
▁quarters	-11.5822
binds	-11.5823
▁fertilizers	-11.5824
▁counting	-11.5827
▁plaster	-11.5827
wiki	-11.5829
▁stucco	-11.5832
▁Idaho	-11.5832
▁Mauritius	-11.5832
▁hospice	-11.5832
▁welcome	-11.5832
▁Mayflower	-11.5832
▁Nuclear	-11.5832
▁subtract	-11.5832
▁untreated	-11.5833
▁odorless	-11.5833
▁trout	-11.5835
▁phloem	-11.5835
▁ultraviolet	-11.5835
▁Methane	-11.5835
▁Tasmania	-11.5836
▁midbrain	-11.5836
▁Graves	-11.5836
▁Sahara	-11.5837
▁absolutely	-11.5838
.,	-11.5839
▁granular	-11.5839
▁Arthritis	-11.5839
▁Double	-11.584
▁royal	-11.5841
▁photography	-11.5841
▁Vancouver	-11.5841
▁lethal	-11.5841
▁Deer	-11.5842
▁mathematics	-11.5842
▁sinuses	-11.5842
▁suspected	-11.5842
▁arrange	-11.5843
▁Journal	-11.5845
▁germination	-11.5845
▁wounds	-11.5845
▁extensions	-11.5846
▁stools	-11.5847
▁Length	-11.5848
▁melted	-11.5848
steroidal	-11.5849
▁Swedish	-11.5851
▁carpal	-11.5852
▁radical	-11.5855
▁Story	-11.5859
▁millimeters	-11.5861
▁incorporation	-11.5862
▁finishes	-11.5862
▁thanks	-11.5867
date	-11.587
▁respective	-11.587
▁enjoyed	-11.5872
▁authorized	-11.5874
▁descendants	-11.5875
▁20,	-11.5876
▁kittens	-11.5879
▁fusion	-11.5886
▁conscious	-11.5889
▁AST	-11.5891
▁Mechanic	-11.5893
▁Hormones	-11.5894
▁provinces	-11.5894
▁Points	-11.59
▁documented	-11.59
▁groom	-11.5902
▁guitar	-11.5911
▁elevator	-11.5916
▁Room	-11.5917
▁50,000	-11.5917
▁float	-11.5918
▁Alan	-11.5918
▁paired	-11.5921
▁cube	-11.5922
▁poet	-11.5923
To	-11.5932
▁justice	-11.5936
▁peptide	-11.5937
▁cylinder	-11.5938
▁ecosystems	-11.5939
▁1040	-11.5945
▁willow	-11.5945
▁fired	-11.5946
speaking	-11.5949
▁Mother	-11.595
▁haven	-11.5957
▁salads	-11.5959
your	-11.5959
▁Dogs	-11.596
▁cysts	-11.5961
▁connector	-11.5961
▁68	-11.5961
▁weathering	-11.5961
▁operational	-11.5969
▁1992	-11.5978
▁struggle	-11.5979
▁lump	-11.5981
▁appearing	-11.5981
▁relax	-11.5982
▁imagine	-11.5982
▁sync	-11.5983
▁rotate	-11.5984
▁plains	-11.599
▁tingling	-11.5991
▁Bahrain	-11.5991
▁involvement	-11.5992
▁symbolism	-11.5992
▁travelling	-11.5993
▁genotype	-11.5994
▁Revenue	-11.5994
▁Deciduous	-11.5994
▁stimuli	-11.5994
▁flexion	-11.5994
▁baseball	-11.5994
▁stratosphere	-11.5995
▁elementary	-11.5996
▁subsequently	-11.5996
▁disabled	-11.5996
▁sought	-11.5997
▁alveolar	-11.5997
▁defining	-11.5997
▁69	-11.5999
▁increments	-11.6
taining	-11.6003
▁dying	-11.6004
▁chickpeas	-11.6006
▁Daniel	-11.6006
▁78	-11.6007
erto	-11.6008
▁matches	-11.6009
▁initiated	-11.601
▁listings	-11.6011
▁assessed	-11.6013
ions	-11.6013
▁burgers	-11.6014
▁7,	-11.6017
▁diffuse	-11.6018
▁Flags	-11.6018
▁Creatin	-11.602
▁movers	-11.6023
▁dendrites	-11.6023
▁stripes	-11.6025
▁softer	-11.6027
▁picked	-11.6027
▁combat	-11.6027
▁1:	-11.6028
▁officials	-11.6033
▁tri	-11.6033
profit	-11.6035
▁noble	-11.6036
▁provisions	-11.6038
▁travelers	-11.6039
▁Rs	-11.6042
▁Wolf	-11.6044
▁discs	-11.6044
▁fuse	-11.6045
▁transit	-11.6046
▁exempt	-11.6047
▁Indians	-11.6049
ium	-11.6049
▁generous	-11.6049
▁6,	-11.605
▁optical	-11.6053
▁mention	-11.6053
▁ACL	-11.6053
aking	-11.6059
▁pat	-11.6062
▁hits	-11.6064
▁lays	-11.6065
ver	-11.6067
▁overlap	-11.6073
▁electronics	-11.6074
▁Dollar	-11.6075
▁$12,000	-11.6076
▁avocado	-11.6076
▁imbalance	-11.6077
▁doctrine	-11.6078
▁Confederate	-11.6082
▁parasite	-11.6082
▁swell	-11.6084
▁te	-11.6084
▁permission	-11.6085
▁temple	-11.6085
▁improves	-11.6088
▁vegetarian	-11.609
▁earthquakes	-11.6091
▁lacking	-11.6095
▁Ho	-11.6096
▁shaft	-11.6098
28	-11.6103
▁Will	-11.6103
▁Surname	-11.6105
▁Fe	-11.6109
▁tire	-11.6126
▁venom	-11.6127
▁aches	-11.6129
▁raises	-11.613
▁phenomena	-11.6134
▁colonial	-11.6136
▁pa	-11.6138
▁conductors	-11.6146
▁pile	-11.6147
▁Douglas	-11.6148
▁Obama	-11.6152
▁Ralph	-11.6152
▁Adderall	-11.6152
▁Columbus	-11.6152
▁Greenpeace	-11.6152
▁deficiencies	-11.6152
▁colonoscopy	-11.6152
▁dramatically	-11.6153
▁Globe	-11.6153
▁menstruation	-11.6153
▁shiny	-11.6155
▁Yellow	-11.6155
▁Series	-11.6155
▁Honda	-11.6155
▁coelom	-11.6156
▁$125	-11.6157
▁celiac	-11.6157
▁adverse	-11.6158
▁JPEG	-11.6158
▁Private	-11.6158
▁fertilization	-11.6159
▁Fungi	-11.616
▁perceived	-11.616
▁watery	-11.6163
▁Antibiotics	-11.6164
▁Library	-11.6165
▁1993	-11.6168
▁accommodate	-11.617
male	-11.6171
▁Police	-11.6172
▁Study	-11.6172
▁acetyl	-11.6176
▁Problems	-11.6177
heat	-11.6183
▁Corps	-11.6184
▁dominated	-11.6184
▁darker	-11.6187
▁abroad	-11.6187
▁funding	-11.6189
▁enclose	-11.619
▁squirrels	-11.6191
▁ammonium	-11.6193
▁washing	-11.6197
▁Rates	-11.6197
▁hotte	-11.6199
▁seasonal	-11.6203
▁abstract	-11.6207
▁soybeans	-11.6207
▁taxed	-11.6211
▁NH	-11.6211
▁115	-11.6211
▁40,000	-11.6211
▁monosaccharides	-11.6216
▁$35,000	-11.6222
▁shield	-11.6225
▁Products	-11.6225
▁counted	-11.6228
▁chew	-11.623
▁reside	-11.623
▁electricians	-11.6232
▁pig	-11.6232
▁IU	-11.6234
▁Mar	-11.6234
ard	-11.6236
▁Attorney	-11.6239
▁threshold	-11.624
▁tRNA	-11.6242
▁incision	-11.6244
▁chair	-11.6245
▁reef	-11.6248
▁Oral	-11.6249
▁Pyramid	-11.6251
▁wires	-11.6252
▁lipoprotein	-11.6252
▁transcript	-11.6253
▁socket	-11.6257
▁objectives	-11.6258
ner	-11.6259
▁convey	-11.6259
▁fo	-11.626
▁studio	-11.6262
▁Super	-11.6269
▁$200.	-11.6274
▁trips	-11.6275
▁2-4	-11.6275
▁crew	-11.6276
▁heights	-11.6282
▁Write	-11.6285
▁induce	-11.6293
▁Economic	-11.6297
▁325°	-11.6297
▁cools	-11.6304
▁pe	-11.6306
▁intra	-11.6307
▁compost	-11.631
▁Steam	-11.6314
link	-11.6314
▁Picchu	-11.6316
▁melatonin	-11.6316
▁Finland	-11.6316
▁Sarah	-11.6316
▁Pressure	-11.6316
▁handful	-11.6317
▁Throughout	-11.6317
▁northeastern	-11.6318
▁fascinating	-11.6318
▁Tokyo	-11.6319
▁Sierra	-11.6319
▁Harbor	-11.6319
▁Cambodia	-11.6319
▁parliamentary	-11.6319
▁Labour	-11.6319
▁detection	-11.632
▁purified	-11.632
▁kale	-11.6321
▁settlers	-11.6322
▁thickened	-11.6323
▁opaque	-11.6325
▁efficiently	-11.6325
▁tan	-11.6325
▁plenum	-11.6326
▁Biblical	-11.6326
▁evolutionary	-11.6326
▁rye	-11.6326
▁biceps	-11.6327
▁Airlines	-11.6328
▁shortening	-11.6329
▁consulting	-11.6329
▁Square	-11.6329
▁busy	-11.633
▁improvements	-11.633
▁Iran	-11.633
▁historically	-11.6331
▁Actually	-11.6332
▁Marketing	-11.6334
▁pertussis	-11.6336
▁cDNA	-11.6336
▁bo	-11.6339
▁Biology	-11.634
▁springs	-11.634
▁flies	-11.6345
▁clam	-11.6348
▁creamy	-11.6349
▁gentle	-11.6349
▁cakes	-11.6352
▁compact	-11.6354
▁(8	-11.636
▁monomers	-11.6364
▁UTI	-11.6371
▁AP	-11.6371
▁z	-11.6374
fish	-11.6377
▁1991	-11.6377
▁Syria	-11.638
▁distribute	-11.638
▁Northeast	-11.6384
▁Scott	-11.6385
test	-11.6385
▁Alberta	-11.6386
▁mill	-11.6388
▁True	-11.6389
▁riches	-11.6397
▁arrest	-11.6397
▁oily	-11.6398
▁ar	-11.6401
▁suppliers	-11.6407
▁effusion	-11.6407
▁constituent	-11.6408
▁bride	-11.641
▁Member	-11.6411
▁birthday	-11.6413
▁liner	-11.6414
proof	-11.6415
▁resume	-11.642
▁mole	-11.642
▁1.0	-11.642
▁Notice	-11.6421
▁dentures	-11.6422
▁Panel	-11.6431
▁username	-11.6433
▁$16	-11.6435
ified	-11.6436
▁Ka	-11.6437
▁Pan	-11.6437
▁needles	-11.644
▁Paint	-11.6444
▁pen	-11.6447
▁exhaust	-11.6449
stranded	-11.6449
▁mare	-11.645
▁adhesive	-11.645
▁sciences	-11.6451
mo	-11.6452
▁bug	-11.6454
▁winters	-11.6458
▁$10,000.	-11.6458
▁purchases	-11.6459
▁enroll	-11.646
▁vaccinations	-11.6463
▁Tanzania	-11.6472
▁reward	-11.6473
▁orbits	-11.6478
▁Maya	-11.6481
▁Equator	-11.6481
▁Salvador	-11.6483
▁absent	-11.6483
▁uncomfortable	-11.6483
▁accessories	-11.6483
▁unstable	-11.6483
▁shellfish	-11.6483
▁Viral	-11.6483
▁masculine	-11.6483
▁Muslims	-11.6484
▁fifteen	-11.6484
▁occasional	-11.6485
▁outline	-11.6485
▁induced	-11.6485
▁Bangladesh	-11.6486
▁Compensation	-11.6486
▁recycling	-11.6486
▁unlimited	-11.6486
▁framing	-11.6487
▁deformation	-11.6487
▁ethnicity	-11.6487
uric	-11.6488
▁Hence	-11.6489
▁Storage	-11.6489
▁photograph	-11.6489
▁glycolysis	-11.6489
▁Philadelphia	-11.6489
▁pineal	-11.6491
▁coach	-11.6492
▁Dairy	-11.6493
▁Eric	-11.6493
▁Yet	-11.6494
▁Clean	-11.6494
▁coolant	-11.6495
▁responds	-11.6496
▁dementia	-11.6496
▁Brooklyn	-11.6496
▁shortened	-11.6497
▁thyroiditis	-11.6497
▁28,	-11.6497
▁Papua	-11.6498
▁grouped	-11.6498
▁exceptional	-11.6498
▁hills	-11.6499
▁XR	-11.65
▁Pass	-11.6502
▁Universal	-11.6503
▁Maria	-11.6503
▁3,	-11.6504
▁promoting	-11.6509
▁secretions	-11.651
ular	-11.6511
▁Ear	-11.6512
▁Divide	-11.6515
▁seriously	-11.6516
▁scrub	-11.6517
▁2007.	-11.6518
either	-11.652
▁[3	-11.6523
▁Works	-11.6526
▁renown	-11.6526
▁delivering	-11.653
-12	-11.653
▁drag	-11.6535
▁Marble	-11.6536
▁flying	-11.6539
source	-11.654
▁screened	-11.6542
range	-11.6543
ent	-11.6545
▁neutrons	-11.6545
▁Nations	-11.6545
standard	-11.655
ocular	-11.6551
!)	-11.6559
ville	-11.656
▁provisional	-11.6564
▁timber	-11.657
▁journal	-11.6573
▁Allowance	-11.6575
▁frames	-11.6577
▁Specialist	-11.6577
▁assign	-11.658
▁Tiger	-11.658
▁applicant	-11.658
▁catalyst	-11.6583
▁pathogen	-11.6587
▁dial	-11.6593
▁guard	-11.6595
▁1-	-11.6596
▁chestnut	-11.6597
▁presentation	-11.6598
▁Product	-11.6599
▁Santa	-11.6599
▁papillomavirus	-11.66
ulmonary	-11.6602
▁towels	-11.6602
▁Pole	-11.6602
▁Wal	-11.6612
▁kills	-11.6612
▁tin	-11.6621
▁investments	-11.6622
▁communications	-11.6623
▁consult	-11.6628
▁adapt	-11.6629
▁1862	-11.6629
▁wise	-11.663
▁Si	-11.663
allowing	-11.6631
▁owns	-11.6631
▁Too	-11.6632
speed	-11.6637
▁1984	-11.6639
▁1961	-11.6641
▁invoice	-11.6646
disambiguation	-11.6651
▁Harvard	-11.6652
▁rabies	-11.6652
▁meatloaf	-11.6652
▁Prohibition	-11.6652
▁rebellion	-11.6652
▁Furthermore	-11.6652
▁knew	-11.6653
▁Rhode	-11.6653
▁premature	-11.6653
▁Reconstruction	-11.6653
▁featuring	-11.6653
▁paperwork	-11.6653
▁similarities	-11.6654
▁terrain	-11.6654
▁functionality	-11.6655
▁Etsy	-11.6655
▁Swiss	-11.6655
▁Imperial	-11.6655
▁lieutenant	-11.6655
▁tennis	-11.6656
▁ovarian	-11.6656
▁rickets	-11.6656
▁difficulties	-11.6656
▁substantially	-11.6657
▁Vinyl	-11.6659
▁appointed	-11.6659
▁targets	-11.666
▁computing	-11.6661
▁crossing	-11.6665
▁credited	-11.6666
▁fallen	-11.6668
▁53	-11.6669
▁peroxide	-11.6669
▁sooner	-11.667
west	-11.667
▁triggered	-11.667
▁Notes	-11.6672
▁captured	-11.6672
▁injected	-11.6672
▁daylight	-11.6673
▁Ruby	-11.6675
▁PET	-11.6675
▁Samuel	-11.6676
▁Winter	-11.668
▁1.1	-11.6685
▁Severe	-11.6686
uk	-11.6688
▁https	-11.6691
▁Original	-11.6693
▁filtered	-11.6693
▁Eat	-11.6701
▁pulling	-11.6701
▁Aug	-11.6702
▁bid	-11.6705
▁creams	-11.6705
▁victims	-11.6712
▁hosts	-11.6713
▁locally	-11.6714
Greek	-11.6716
▁circuits	-11.6717
▁Mini	-11.6718
ke	-11.672
▁attributes	-11.6721
▁turbines	-11.6722
▁4,	-11.6725
▁Radio	-11.6728
▁BCE	-11.673
▁Info	-11.6737
▁resolve	-11.6738
etal	-11.674
▁sprain	-11.6741
▁Live	-11.6742
▁zygote	-11.6743
▁hazard	-11.6747
▁orchids	-11.6748
▁hernia	-11.6748
▁automobile	-11.6749
▁contracted	-11.675
▁Stephen	-11.6751
▁URL	-11.6754
▁Money	-11.6754
▁Plastic	-11.6754
▁Receipt	-11.6755
▁gather	-11.6755
▁browned	-11.6758
▁nouns	-11.6763
▁Near	-11.6763
▁folks	-11.6766
▁weights	-11.6767
▁bulbs	-11.6767
▁speaker	-11.6767
▁deoxyribonucle	-11.677
▁Spice	-11.6772
▁marker	-11.6775
▁cleaner	-11.6785
▁Infections	-11.6788
calorie	-11.679
▁grid	-11.6793
▁fractures	-11.6795
▁initials	-11.6796
▁Powers	-11.6798
▁frogs	-11.6802
▁envelope	-11.6802
hours	-11.681
▁Safe	-11.6811
▁mistake	-11.6813
▁newborns	-11.6813
▁damag	-11.6814
▁elaborate	-11.6815
▁54	-11.6815
▁triggers	-11.6817
▁surprising	-11.6822
▁landing	-11.6824
▁Detroit	-11.6824
▁utilities	-11.6824
▁authorities	-11.6825
▁cumin	-11.6825
▁trillion	-11.6825
▁idiopathic	-11.6826
▁Starch	-11.6827
▁herbaceous	-11.6828
▁accompany	-11.6828
▁Bi	-11.6828
▁Moringa	-11.6828
▁labour	-11.6828
▁Landscape	-11.6829
▁elasticity	-11.6829
▁Population	-11.6829
▁cheapest	-11.6829
▁porous	-11.683
▁bacillus	-11.6833
▁neuropathy	-11.6833
▁fingerprinting	-11.6834
▁nickel	-11.6835
▁Montana	-11.6835
▁Iraq	-11.6835
▁Ne	-11.6835
▁Dubai	-11.6838
▁shooting	-11.6838
▁noodles	-11.684
▁melanoma	-11.6841
▁typhoid	-11.6843
▁Oliver	-11.6843
▁enacted	-11.6843
▁blower	-11.6844
▁smart	-11.6844
▁Quarter	-11.6851
CH	-11.6851
▁ABA	-11.6852
▁Wireless	-11.6853
ea	-11.6854
▁packing	-11.6858
owned	-11.6859
binding	-11.686
▁bend	-11.6861
energy	-11.6861
▁par	-11.6861
▁atherosclerosis	-11.6866
▁suggestions	-11.6868
▁hub	-11.6871
▁manifest	-11.6872
▁subjective	-11.6873
first	-11.6875
▁bridges	-11.6875
normal	-11.6885
▁dip	-11.6888
pped	-11.6892
▁nights	-11.6892
▁Mt	-11.6895
▁Spread	-11.6895
▁rust	-11.6898
▁logic	-11.6901
▁adhere	-11.6902
▁Tell	-11.6903
▁Pa	-11.6904
▁1963	-11.6916
▁reset	-11.6919
▁Reef	-11.6919
operative	-11.6919
▁Advertisement	-11.692
▁bundles	-11.6921
▁dies	-11.6921
▁adverb	-11.6922
▁acquisition	-11.6922
sufficient	-11.6923
▁classroom	-11.6923
▁tundra	-11.6924
▁incubator	-11.6926
21	-11.6927
▁dropping	-11.6928
▁railway	-11.6928
▁seas	-11.6929
▁scans	-11.693
▁traveled	-11.693
▁doctorate	-11.6931
▁systematic	-11.6931
▁finds	-11.6932
▁ADHD	-11.6932
▁outcome	-11.6934
▁hips	-11.6937
▁spore	-11.6937
16	-11.6937
▁circulate	-11.6938
▁12'	-11.6939
▁evil	-11.6939
▁triglyceride	-11.694
▁crabs	-11.6941
graduate	-11.6941
▁syllable	-11.6942
naming	-11.6948
season	-11.695
▁8-10	-11.6952
▁Fo	-11.6956
▁paintings	-11.6963
▁films	-11.6963
▁miss	-11.6963
▁Da	-11.6965
▁flash	-11.6971
epending	-11.6973
▁directors	-11.6975
3)	-11.6976
▁8.	-11.6977
▁ba	-11.6983
▁pie	-11.6983
45	-11.6986
▁modify	-11.699
▁whil	-11.699
▁rescue	-11.6993
feeding	-11.6994
▁subtropic	-11.6995
▁Technical	-11.6997
town	-11.6997
▁Years	-11.6998
▁pose	-11.6999
▁Aegean	-11.7
▁Testament	-11.7
▁dynasty	-11.7
▁spectacular	-11.7
▁ginger	-11.7
▁conservation	-11.7
▁productivity	-11.7
▁mobility	-11.7
▁gravy	-11.7001
▁Napoleon	-11.7001
▁calves	-11.7001
▁cocoa	-11.7001
▁Ro	-11.7002
▁En	-11.7003
▁Historically	-11.7003
▁conduction	-11.7003
▁Madrid	-11.7003
▁Chipotle	-11.7003
▁mandatory	-11.7003
▁healthier	-11.7003
▁plexus	-11.7006
▁pancreatic	-11.7007
▁standardized	-11.7007
▁40-	-11.7007
▁convergent	-11.7007
▁Stress	-11.7008
▁Magnetic	-11.7008
▁racing	-11.7008
▁forget	-11.7009
▁circulating	-11.701
▁vaccinated	-11.701
▁engaged	-11.7013
ware	-11.7014
▁hotter	-11.7014
▁transparent	-11.7014
▁scarring	-11.7014
▁$80,000	-11.7016
▁Kong	-11.7017
▁mustard	-11.7017
▁broader	-11.7018
▁droplets	-11.7019
▁poured	-11.702
▁attended	-11.7021
▁definite	-11.7021
▁Siberian	-11.7022
▁upright	-11.7023
▁incredible	-11.7025
▁occult	-11.7025
▁withstand	-11.7029
▁curves	-11.703
bank	-11.7032
▁$14	-11.7036
▁occupied	-11.7036
▁winning	-11.7039
▁monetar	-11.704
▁4%	-11.704
▁deeply	-11.7041
▁Mutation	-11.7043
▁emissions	-11.7047
▁adaptations	-11.7048
▁assisted	-11.7056
▁switching	-11.7057
▁sprinkle	-11.7059
extroamphetamine	-11.7061
▁colder	-11.7062
▁humor	-11.7063
▁cameras	-11.7063
▁Ni	-11.7072
▁Ten	-11.7074
▁Cal	-11.709
▁triphosphate	-11.7096
▁Essential	-11.7096
▁Chain	-11.7101
▁conclusion	-11.7102
▁chimney	-11.7102
▁dealership	-11.7102
▁snap	-11.7103
▁legislature	-11.7103
▁Girl	-11.7104
▁alphabet	-11.7104
▁orientation	-11.7104
▁nodule	-11.7105
▁Laser	-11.7112
▁passengers	-11.7112
▁stimulant	-11.7116
▁caste	-11.7116
▁Birth	-11.7117
▁Practice	-11.7117
step	-11.7118
▁7%	-11.7119
▁illustration	-11.7124
▁Wash	-11.7125
▁beets	-11.7127
▁gamete	-11.7128
▁Midwest	-11.7129
▁breeder	-11.7131
▁diabetic	-11.7131
▁0.6	-11.7133
▁1945	-11.7133
▁compares	-11.7139
▁cones	-11.7139
▁(25	-11.714
▁aggregate	-11.7161
▁ridge	-11.7161
▁Brush	-11.7163
▁byproduct	-11.7165
cooked	-11.7166
▁drawings	-11.7166
▁administer	-11.7175
▁trains	-11.7178
▁oregano	-11.7178
▁Calgary	-11.7178
▁sneezing	-11.7178
▁OneDrive	-11.7178
▁Disability	-11.7179
▁innovative	-11.7179
▁laundry	-11.7179
▁recombinant	-11.7179
▁Toyota	-11.7179
▁ads	-11.7179
▁Rather	-11.718
▁subduction	-11.718
▁fiberglass	-11.718
▁typewriter	-11.7181
▁chose	-11.7181
▁fulfill	-11.7181
▁desirable	-11.7181
▁convicted	-11.7181
▁Twitter	-11.7182
▁obsessive	-11.7182
▁Administrative	-11.7182
▁spinning	-11.7182
▁Fleet	-11.7183
▁extinct	-11.7184
▁runny	-11.7185
▁lettuce	-11.7185
▁broccoli	-11.7185
▁Cognitive	-11.7185
▁ambulance	-11.7186
▁Multi	-11.7188
▁glandular	-11.7188
▁Ethernet	-11.7189
▁obviously	-11.7189
▁formulated	-11.719
▁Norwegian	-11.7193
▁polyethylene	-11.7193
▁invaded	-11.7193
▁testicles	-11.7199
▁microbes	-11.7199
▁$180	-11.7202
▁curved	-11.7205
▁bow	-11.7207
ATP	-11.7208
▁Extra	-11.7208
▁queen	-11.7211
▁modest	-11.7211
▁fitted	-11.7212
▁newer	-11.7213
▁abscess	-11.7214
▁bubbles	-11.7229
▁phospholipids	-11.7229
▁beard	-11.7235
sh	-11.7237
▁inland	-11.7238
▁1994	-11.7238
▁compatible	-11.7239
▁rail	-11.724
▁Ann	-11.724
▁colorful	-11.7243
▁economics	-11.7247
due	-11.7247
▁Ed	-11.7249
ad	-11.7251
-1/2	-11.7252
▁Register	-11.7253
▁Increase	-11.7254
▁shear	-11.7257
▁Brand	-11.726
▁colours	-11.7262
ipolar	-11.7263
▁Bengal	-11.7269
▁eats	-11.727
▁branched	-11.7272
▁ALL	-11.7274
▁Update	-11.7275
▁shut	-11.7278
▁proceed	-11.7279
▁vibration	-11.7281
▁1969	-11.7282
▁participle	-11.7282
▁drought	-11.7283
▁Minor	-11.7284
▁conviction	-11.7284
▁deadline	-11.7285
▁solvents	-11.7285
▁Rabbit	-11.7286
▁turbine	-11.7286
▁lumen	-11.7286
▁1863	-11.7287
employed	-11.7288
▁expenditure	-11.7288
what	-11.7289
FDA	-11.7289
▁Culture	-11.7292
▁psychologist	-11.7292
▁dated	-11.7294
food	-11.7295
western	-11.7295
▁ensures	-11.7296
▁flame	-11.7297
▁anal	-11.7298
▁promotion	-11.7299
▁hammer	-11.7303
▁deficit	-11.7303
▁Value	-11.7304
95	-11.7305
▁kinetic	-11.7306
▁2009.	-11.7307
si	-11.7309
▁attain	-11.7309
▁prion	-11.7312
work	-11.7322
blood	-11.7325
▁Shea	-11.7327
ham	-11.7329
▁lenders	-11.7329
▁incomes	-11.7331
▁elections	-11.7332
sa	-11.7332
▁loses	-11.7334
▁Frank	-11.7336
▁proportions	-11.7339
▁forever	-11.734
▁Mid	-11.7341
between	-11.7347
part	-11.7348
med	-11.7353
▁CBS	-11.7354
▁grants	-11.7355
▁kosher	-11.7356
▁tolerate	-11.7357
▁Qatar	-11.736
▁ensign	-11.736
▁Wodehouse	-11.736
cular	-11.736
▁Argentina	-11.736
▁Anemia	-11.7361
▁flora	-11.7362
▁fragrant	-11.7363
▁autumn	-11.7364
▁Valium	-11.7364
▁brainstem	-11.7364
▁eligibility	-11.7364
▁Buy	-11.7364
▁Guidelines	-11.7364
istic	-11.7364
▁excreted	-11.7366
▁factories	-11.7366
▁crushed	-11.7367
▁chromium	-11.7367
▁encountered	-11.7368
▁trigeminal	-11.7369
▁rosemary	-11.7371
▁Cherokee	-11.7371
▁arterial	-11.7372
▁sumac	-11.7373
▁miso	-11.7374
▁infrared	-11.7375
▁Bowman	-11.7375
▁propane	-11.7375
▁flavored	-11.7376
▁dentists	-11.7378
▁MI	-11.7379
▁cirrhosis	-11.7379
▁cloudy	-11.7379
▁radiology	-11.7379
▁SMSF	-11.7379
▁4-5	-11.7379
▁$100.	-11.7381
▁harvested	-11.7382
▁invade	-11.7382
▁transformed	-11.7383
▁DUI	-11.7386
▁compressed	-11.7388
systolic	-11.7389
▁synaptic	-11.739
▁Nazi	-11.739
▁valued	-11.7393
85	-11.7396
▁starches	-11.7399
▁ribosom	-11.74
▁1.3	-11.7401
▁Digital	-11.7401
▁Trade	-11.7403
▁starter	-11.7403
▁romantic	-11.7404
▁construct	-11.7407
▁Jacob	-11.7408
▁tetanus	-11.7409
mark	-11.741
▁odd	-11.7412
-5	-11.7414
▁Ku	-11.7415
▁donate	-11.7416
▁Terms	-11.7418
week	-11.7419
▁Lead	-11.742
24	-11.7421
▁organizational	-11.7425
▁Come	-11.7432
▁lacks	-11.7443
▁trap	-11.7447
▁flood	-11.7448
▁spans	-11.7449
html	-11.7449
▁Nov	-11.745
▁$750	-11.745
▁analyze	-11.7451
▁flavour	-11.7452
▁excavation	-11.7457
who	-11.7462
▁bicycle	-11.7468
▁alligator	-11.7469
▁kick	-11.747
▁leopard	-11.747
▁consequence	-11.747
▁statute	-11.7471
▁legend	-11.7471
▁promise	-11.7471
▁variance	-11.7472
▁knees	-11.7474
▁reserves	-11.7474
▁wavelength	-11.7474
▁marry	-11.7479
▁complaint	-11.7479
chain	-11.748
▁Clinic	-11.7481
▁fissure	-11.7484
▁genre	-11.7485
▁UV	-11.7489
▁Picture	-11.7489
▁mud	-11.7489
French	-11.7491
▁penetrate	-11.7495
▁mom	-11.7498
▁faces	-11.7503
▁telling	-11.7508
▁OH	-11.7508
▁1947	-11.751
▁namely	-11.752
▁Joe	-11.7526
33	-11.7529
▁Hyper	-11.7531
▁57	-11.7533
▁$60,000	-11.7534
▁Steve	-11.7535
▁builder	-11.754
▁torque	-11.7541
▁Cuba	-11.7543
▁Structural	-11.7544
law	-11.7545
▁Disney	-11.7545
▁american	-11.7545
▁Gotham	-11.7545
▁Perhaps	-11.7545
▁Verizon	-11.7545
▁Hampshire	-11.7545
▁Harlem	-11.7545
▁durability	-11.7545
▁acetylcholine	-11.7545
▁unicellular	-11.7545
▁Etymology	-11.7545
▁capabilities	-11.7545
▁expelled	-11.7546
▁Delivery	-11.7546
▁Plantago	-11.7546
▁Authority	-11.7546
▁prospective	-11.7546
▁integration	-11.7546
▁mathematical	-11.7546
▁motorcycle	-11.7546
▁reception	-11.7546
▁Fox	-11.7547
▁maximize	-11.7548
▁Sicily	-11.7549
▁Military	-11.7549
▁Stanford	-11.7549
▁psoriasis	-11.7549
▁Barcelona	-11.7549
▁compliance	-11.7549
▁navigation	-11.7549
▁specifies	-11.7549
▁legendary	-11.7549
▁engagement	-11.755
▁lithosphere	-11.755
▁canopy	-11.755
▁pottery	-11.755
▁Distribution	-11.755
▁precisely	-11.7551
▁15-20	-11.7551
▁briefly	-11.7551
▁intact	-11.7551
▁derivation	-11.7551
▁geological	-11.7553
▁Beyond	-11.7553
▁schizophrenia	-11.7554
▁Multiply	-11.7554
▁pus	-11.7556
▁$3,500	-11.7556
▁rectangular	-11.7556
▁Shakespearean	-11.7556
▁Hollywood	-11.7557
▁naked	-11.7557
▁immature	-11.7557
▁$1.50	-11.7557
▁executed	-11.7558
▁1939	-11.756
▁surprised	-11.756
▁pyruvate	-11.7561
▁lactic	-11.7563
▁bunch	-11.7564
▁piping	-11.7565
▁resembling	-11.7565
▁Football	-11.7566
▁2.4	-11.7566
▁Laos	-11.7566
▁neural	-11.7567
▁primitive	-11.7568
▁ripe	-11.7571
▁fraud	-11.7571
▁dig	-11.7571
▁MMR	-11.7571
▁polished	-11.7572
▁farms	-11.7573
em	-11.7573
▁thawed	-11.7574
▁aspartate	-11.7576
▁projected	-11.758
▁425	-11.7582
▁insured	-11.7583
▁9.	-11.7583
▁expanding	-11.7584
▁alkaloids	-11.7586
▁overactive	-11.7587
▁Half	-11.7593
than	-11.7595
▁decid	-11.7595
▁swings	-11.7599
▁GP	-11.7606
▁glacial	-11.7607
▁225	-11.7612
▁Log	-11.7614
▁monitors	-11.762
▁bold	-11.7622
▁Zion	-11.7625
▁2:	-11.7626
▁CDC	-11.7634
▁believes	-11.7635
▁behaviour	-11.7646
▁valleys	-11.765
▁Joan	-11.7652
▁Ghost	-11.7653
▁cables	-11.7654
▁chat	-11.7655
▁pleasure	-11.7655
▁twins	-11.7657
▁Senior	-11.7657
▁currents	-11.7657
▁clerk	-11.7657
▁Olympic	-11.7657
▁Magazine	-11.7658
▁gemstone	-11.7658
▁migraine	-11.7658
▁dishwasher	-11.7659
▁Arab	-11.7659
Photo	-11.766
▁sweetener	-11.766
▁accommodation	-11.7662
▁nylon	-11.7662
son	-11.7664
▁surroundings	-11.7665
▁Hold	-11.7665
▁whale	-11.7666
▁glacier	-11.7666
▁Regulation	-11.7667
▁insertion	-11.7668
▁Worker	-11.7669
▁electrolyte	-11.767
▁2500	-11.7671
▁alert	-11.7672
▁dissolves	-11.7681
▁clauses	-11.7684
▁toys	-11.7684
▁AF	-11.769
▁phases	-11.7693
▁Measure	-11.7694
▁su	-11.7695
▁oxides	-11.7699
▁Charge	-11.77
▁septic	-11.77
▁23,	-11.77
TB	-11.7704
-6	-11.7706
▁gun	-11.7711
▁till	-11.7712
▁planes	-11.7715
▁Maca	-11.7716
formerly	-11.7718
mi	-11.7719
▁passages	-11.7722
▁poems	-11.7723
▁hall	-11.7723
▁ticks	-11.7724
▁MA	-11.7727
▁panther	-11.7727
▁Stay	-11.7728
▁trench	-11.773
▁Acts	-11.7732
▁88	-11.7732
▁Bathroom	-11.7734
▁Bastian	-11.7734
▁Foster	-11.7734
▁cauliflower	-11.7734
▁Resort	-11.7734
▁satisfaction	-11.7734
bone	-11.7734
▁Specifically	-11.7734
▁Fourteenth	-11.7735
▁predominant	-11.7735
▁cramping	-11.7736
▁Fixed	-11.7736
▁overwhelming	-11.7736
▁Usage	-11.7736
▁steadily	-11.7736
▁Scan	-11.7737
▁Companies	-11.7738
▁Distance	-11.7738
▁Ivan	-11.7738
▁Lisa	-11.7738
▁exploration	-11.7738
▁cumulative	-11.7739
▁unhealthy	-11.7739
▁genera	-11.7739
▁larvae	-11.7739
▁Sub	-11.7741
▁Geronimo	-11.7741
▁descending	-11.7743
▁analyzed	-11.7744
▁Properties	-11.7745
▁wipe	-11.7745
ipped	-11.7746
▁miniature	-11.7746
▁Display	-11.7748
▁columnar	-11.7748
ata	-11.775
▁Compared	-11.7752
three	-11.7756
▁accessory	-11.7758
▁Marie	-11.7759
▁equipped	-11.7761
▁drilling	-11.7762
▁hydrocodone	-11.7765
▁stuffed	-11.7765
ER	-11.7765
▁asbestos	-11.7765
ned	-11.7766
▁Fill	-11.777
▁celebrate	-11.7771
▁frog	-11.7771
▁reactants	-11.7772
▁frying	-11.7774
▁lovely	-11.7775
▁requested	-11.7777
▁mint	-11.7778
▁Testing	-11.7779
▁ureters	-11.778
▁racial	-11.7781
▁$200,000	-11.7784
▁leukocytes	-11.7784
▁CNA	-11.7785
ak	-11.7787
▁injections	-11.7787
▁caring	-11.7791
▁affairs	-11.7792
▁crawl	-11.7792
▁cucumbers	-11.7793
▁fax	-11.7795
▁veneers	-11.7797
▁permeable	-11.7797
▁loosen	-11.78
▁brandy	-11.78
▁foundations	-11.7803
ide	-11.7809
▁Allies	-11.7813
▁featured	-11.7814
▁cleaned	-11.7814
▁Indo	-11.7816
▁tofu	-11.7816
▁loaded	-11.7817
▁96	-11.7817
▁stalks	-11.782
▁outcomes	-11.7823
▁1973	-11.7825
▁trails	-11.7829
▁tenth	-11.783
▁30,000	-11.7832
▁medically	-11.7834
▁mined	-11.7834
rate	-11.7846
▁camshaft	-11.7846
▁Link	-11.7848
▁Averages	-11.7848
▁incident	-11.7849
▁dont	-11.785
▁modification	-11.7851
▁Question	-11.7851
▁derivatives	-11.7853
▁Content	-11.7854
▁cousin	-11.7855
▁recommendation	-11.7855
▁Hormone	-11.7855
▁oblique	-11.7856
▁ho	-11.786
▁Slab	-11.7861
▁pride	-11.7861
▁EMT	-11.7864
thirds	-11.787
▁Prepare	-11.7871
▁Customer	-11.7872
▁lap	-11.7873
▁Wait	-11.7874
common	-11.7874
▁projection	-11.7874
▁linking	-11.7875
▁nut	-11.788
▁67	-11.7885
▁counterpart	-11.7886
▁horn	-11.7887
▁ensur	-11.7888
▁collector	-11.7889
▁narcotic	-11.7893
existing	-11.7895
▁peri	-11.7895
▁fluctuate	-11.7896
▁DS	-11.79
▁Stop	-11.7917
&#39;	-11.7918
▁ADH	-11.7925
▁Hitler	-11.7926
▁gradient	-11.7926
▁custody	-11.7926
▁Warsaw	-11.7926
▁pruning	-11.7926
▁Franklin	-11.7926
▁guest	-11.7927
▁flavorful	-11.7927
▁bare	-11.7927
▁hierarchy	-11.7927
▁rotator	-11.7928
▁Forbes	-11.7928
▁wettest	-11.7928
▁uncooked	-11.7928
▁lion	-11.7929
▁loaf	-11.793
▁Richmond	-11.793
▁descended	-11.793
▁societies	-11.793
▁epidermal	-11.7931
▁Pierce	-11.7931
▁troposphere	-11.7931
▁carved	-11.7933
▁renamed	-11.7934
▁distillation	-11.7934
▁pastry	-11.7935
▁ornamental	-11.7935
▁Hong	-11.7935
▁proud	-11.7935
▁Howard	-11.7935
▁NASA	-11.7937
▁politics	-11.7937
▁latin	-11.7938
▁septum	-11.7938
▁Belt	-11.7938
▁Walking	-11.7938
▁Wednesday	-11.7938
▁surprisingly	-11.7939
▁findings	-11.7943
▁10-15	-11.7945
▁groin	-11.7946
▁HVAC	-11.7946
▁deuterium	-11.7946
▁uracil	-11.7947
▁Humans	-11.7949
▁Asphalt	-11.795
▁drip	-11.7951
▁crispy	-11.7952
▁google	-11.7954
▁encompasse	-11.7957
▁distilled	-11.7957
▁NATO	-11.7958
▁strange	-11.7958
▁intention	-11.7959
▁Greater	-11.7959
5,000	-11.796
▁35%	-11.796
▁blended	-11.7965
▁Farm	-11.7968
▁heaters	-11.7969
▁jointly	-11.797
▁psycho	-11.7975
▁pu	-11.7977
▁Ch	-11.7978
▁careers	-11.798
both	-11.7985
▁Limits	-11.7985
▁attic	-11.7985
▁Sort	-11.7986
▁specifications	-11.7988
ons	-11.7988
mile	-11.7988
▁happening	-11.7998
▁whales	-11.8001
▁(0.00	-11.8002
oz	-11.8005
▁Definitions	-11.8011
▁$1,000.	-11.8016
▁ch	-11.8017
▁rats	-11.802
▁pressing	-11.8022
iest	-11.8022
nuclear	-11.8027
▁worship	-11.8027
▁premier	-11.8032
▁prompt	-11.8034
▁coloured	-11.8035
▁Command	-11.8035
▁Sri	-11.8035
▁Photos	-11.8036
▁burst	-11.8037
▁Synthetic	-11.8039
▁forecast	-11.8039
▁Fund	-11.804
▁specialization	-11.8042
▁Motor	-11.8043
▁junior	-11.8043
▁cyanide	-11.8044
▁Giant	-11.8044
▁Window	-11.8046
▁residue	-11.8048
▁radiator	-11.8048
▁dialects	-11.8049
▁Wedding	-11.805
▁layout	-11.8051
▁heritage	-11.8051
ier	-11.8053
▁VII	-11.8054
▁outward	-11.8055
▁Peak	-11.8055
▁Important	-11.8056
▁venture	-11.8056
▁fails	-11.8056
▁Robin	-11.8056
▁ganglion	-11.8056
▁rug	-11.8065
▁AT	-11.8067
release	-11.8068
▁caves	-11.807
▁5-6	-11.8071
hi	-11.8076
▁molar	-11.8076
▁Snow	-11.8081
▁fi	-11.8084
rare	-11.8087
▁tale	-11.8093
▁Carol	-11.8093
▁worsen	-11.8098
▁thorough	-11.8105
▁Dec	-11.8105
▁Person	-11.8108
▁2+	-11.811
▁adopt	-11.8116
▁routes	-11.8117
▁Further	-11.8122
▁fascia	-11.8122
▁Federation	-11.8122
▁Presley	-11.8122
▁Titanium	-11.8122
▁Wiktionary	-11.8122
▁anticodon	-11.8122
▁Cinnamon	-11.8122
▁Photosynthesis	-11.8122
▁carotid	-11.8123
▁citizenship	-11.8123
▁Kayla	-11.8123
▁Liability	-11.8123
▁attendance	-11.8123
▁Richardson	-11.8123
▁Emma	-11.8123
▁Miranda	-11.8123
▁sedentary	-11.8123
▁Angina	-11.8124
▁resurfacing	-11.8124
▁tasty	-11.8124
▁recurrent	-11.8124
▁copyright	-11.8124
▁myself	-11.8125
▁comparing	-11.8125
▁globe	-11.8126
▁exotic	-11.8126
▁Gothic	-11.8126
▁batch	-11.8127
▁Arthur	-11.8127
▁Damage	-11.8127
▁Dead	-11.8127
▁Worth	-11.8128
CNS	-11.8128
▁spontaneous	-11.8128
▁inspiration	-11.8129
▁fistula	-11.813
▁implied	-11.813
▁Morning	-11.813
▁exocrine	-11.8131
▁interference	-11.8132
▁RRSP	-11.8132
▁relaxed	-11.8133
▁lumber	-11.8133
▁violence	-11.8134
▁iOS	-11.8135
▁sinusitis	-11.8135
▁implemented	-11.8135
▁slime	-11.8136
▁encoded	-11.8136
▁Features	-11.8136
▁Maldives	-11.8137
▁blind	-11.8137
▁Pop	-11.8137
▁undergoes	-11.8138
▁Everyone	-11.8139
▁Nature	-11.8141
▁Scientific	-11.8141
▁Ingredients	-11.8142
▁thiamine	-11.8143
▁Holy	-11.8144
▁2/3	-11.8146
▁spherical	-11.8147
▁2008.	-11.8149
▁screws	-11.8149
▁Cycle	-11.8149
▁Licensed	-11.8153
▁writes	-11.8161
▁simplex	-11.8161
▁Highlands	-11.8163
▁earners	-11.8166
▁Contract	-11.8169
▁mixes	-11.8172
▁Delete	-11.8174
income	-11.8176
▁projector	-11.8176
▁$7,000	-11.8181
▁Games	-11.8182
▁SO	-11.8183
▁dull	-11.8185
▁Ford	-11.8188
▁shoots	-11.8192
when	-11.8194
IV	-11.8196
▁bending	-11.8197
▁Honey	-11.8197
▁cilia	-11.8199
▁pit	-11.8203
▁vagu	-11.8205
▁reefs	-11.8206
▁8-	-11.8207
▁woody	-11.8213
▁Equal	-11.8217
ities	-11.8217
▁3%	-11.8224
wise	-11.8225
▁AC	-11.8227
▁crimes	-11.8227
degree	-11.8229
▁spark	-11.8229
cast	-11.8229
▁cabin	-11.8236
▁illustrate	-11.8237
35	-11.8238
▁talent	-11.824
▁blank	-11.8241
hether	-11.8242
▁defendant	-11.8244
▁basil	-11.8244
▁garter	-11.8244
▁Trans	-11.8245
▁willing	-11.8246
▁museum	-11.8246
▁cruise	-11.8246
▁titration	-11.8246
▁Therapist	-11.8247
▁seasonings	-11.8247
▁carrot	-11.8248
▁sonnet	-11.8248
▁fountain	-11.8249
▁snail	-11.8252
▁neutron	-11.8252
▁issuer	-11.8253
▁sinks	-11.8255
▁profits	-11.8255
▁armpit	-11.8258
▁offset	-11.826
▁Rainforest	-11.8263
▁hose	-11.8266
▁experiments	-11.8268
▁encode	-11.827
▁Rub	-11.8278
set	-11.8282
▁para	-11.8285
▁turkeys	-11.8288
▁Rest	-11.8289
▁Changes	-11.829
▁Zen	-11.8291
▁solo	-11.8298
▁retains	-11.8301
▁(1).	-11.8305
bodied	-11.8307
▁tide	-11.8308
▁Bulgaria	-11.8308
yl	-11.8309
▁cancerous	-11.831
▁fiction	-11.831
▁junctions	-11.8315
▁Determine	-11.8319
▁5-10	-11.8319
▁dryer	-11.8319
▁Fraser	-11.8322
▁Puppies	-11.8322
▁anniversary	-11.8322
▁heterozygous	-11.8322
▁likelihood	-11.8322
▁ancestry	-11.8322
▁Clarence	-11.8322
▁Guatemala	-11.8322
▁DVI	-11.8323
▁emitted	-11.8323
▁remainder	-11.8323
▁Hourly	-11.8323
▁flax	-11.8324
▁annoying	-11.8325
▁abandoned	-11.8325
▁evident	-11.8325
▁documentation	-11.8326
▁Growth	-11.8326
▁umbrella	-11.8326
▁Historical	-11.8327
▁Abdominal	-11.8327
▁subcutaneous	-11.8328
▁ileum	-11.8329
▁Spam	-11.833
▁stimulus	-11.833
▁mountainous	-11.833
▁probability	-11.8331
▁Rinse	-11.8331
▁Never	-11.8331
▁sunflower	-11.8331
▁forehead	-11.8331
▁mound	-11.8332
▁relaxation	-11.8332
▁yellowish	-11.8332
▁Rico	-11.8332
▁alternating	-11.8333
▁Potter	-11.8334
▁8%	-11.8334
▁20-30	-11.8334
▁LPG	-11.8334
▁Prozac	-11.8334
▁endemic	-11.8334
▁osteoporosis	-11.8334
▁inherent	-11.8335
▁Should	-11.8335
▁Anaerobic	-11.8336
▁aspirin	-11.8336
▁couch	-11.8336
▁excited	-11.8336
▁governed	-11.8337
▁greek	-11.8337
▁trapped	-11.8337
ot	-11.834
▁apartments	-11.8341
▁suffered	-11.8341
▁imported	-11.8343
▁delayed	-11.8344
op	-11.8345
▁repeating	-11.8345
▁Arteries	-11.8348
ised	-11.8349
▁Ba	-11.8351
▁Patrick	-11.8351
▁Sep	-11.8351
▁forth	-11.8352
▁Wars	-11.8352
▁tired	-11.8354
▁Contributions	-11.8354
▁stabilize	-11.8354
▁stretched	-11.8356
▁Called	-11.8356
▁strengths	-11.836
▁1,200	-11.8362
▁Statistical	-11.8362
▁mating	-11.8363
▁2,500	-11.8363
▁fills	-11.8365
▁dialog	-11.8366
▁Roll	-11.837
▁Identify	-11.837
▁Germans	-11.837
▁picking	-11.837
▁severely	-11.837
▁promoted	-11.8376
▁le	-11.8377
▁liquor	-11.8378
▁bolts	-11.8378
▁Branch	-11.8379
▁2).	-11.8379
▁attache	-11.838
▁Hungary	-11.838
▁cookies	-11.8381
▁fractions	-11.8381
▁Muscles	-11.8386
▁prune	-11.8387
▁cabinets	-11.8391
▁buds	-11.8392
▁Fair	-11.8394
▁powdered	-11.8394
!!	-11.8394
▁Jeff	-11.8396
ko	-11.8398
▁advise	-11.84
▁Coal	-11.8404
bearing	-11.8404
▁pub	-11.8407
▁Kre	-11.8412
▁AA	-11.8413
▁DBA	-11.8413
▁Classic	-11.8414
▁loud	-11.8421
▁mothers	-11.8422
▁fold	-11.8425
▁shortly	-11.8431
▁anytime	-11.8431
▁,	-11.8433
▁minimize	-11.8435
▁Regional	-11.8435
▁cleared	-11.8437
▁Rocks	-11.8437
▁$5,500	-11.8437
▁slave	-11.8445
▁Expression	-11.8445
▁”	-11.8447
▁beating	-11.8447
▁polygon	-11.8448
▁backyard	-11.8448
▁Holiday	-11.8449
▁antagonist	-11.845
▁disturbance	-11.8451
▁neurosurgeon	-11.8451
▁attribute	-11.8451
▁compartment	-11.8451
▁Capulet	-11.8451
▁yolk	-11.8451
▁bicarbonate	-11.8452
▁cheque	-11.8453
each	-11.8455
▁defeat	-11.8457
▁resistor	-11.8457
▁participat	-11.8459
#	-11.8459
▁organisation	-11.846
▁casual	-11.8463
▁joy	-11.8464
▁Industrial	-11.8465
▁trailer	-11.8468
▁Screen	-11.8471
▁anime	-11.8476
▁dressing	-11.8477
▁Repair	-11.8482
▁highway	-11.8483
▁$900	-11.8483
▁Egyptians	-11.8484
▁appraisal	-11.8484
▁monosaccharide	-11.8488
▁slopes	-11.8489
German	-11.8489
▁pons	-11.849
▁stew	-11.8493
▁max	-11.8501
▁spa	-11.8502
▁Ages	-11.8503
▁Rica	-11.8504
▁Fall	-11.8509
300	-11.8513
▁Venezuela	-11.8513
▁minister	-11.8514
▁confuse	-11.8518
▁Renew	-11.8519
▁tier	-11.8519
▁Trench	-11.8521
▁brothers	-11.8522
▁collective	-11.8526
▁seldom	-11.8526
▁Beijing	-11.8526
▁Dynasty	-11.8526
▁Dopamine	-11.8526
▁custard	-11.8526
▁Sedimentary	-11.8526
▁holistic	-11.8527
▁manifold	-11.8527
▁Regardless	-11.8527
▁Insulin	-11.8527
▁deflection	-11.8527
▁poppy	-11.8527
▁Hinduism	-11.8527
▁Remodeling	-11.8527
▁Join	-11.8527
▁urinate	-11.8528
▁Burke	-11.8528
▁Driveway	-11.8528
▁Colony	-11.8529
▁promptly	-11.8529
▁Barrier	-11.853
▁Botswana	-11.853
▁mitral	-11.853
▁dermatitis	-11.853
▁TM	-11.853
▁Tamil	-11.853
▁depreciation	-11.8531
▁designing	-11.8531
▁bedrock	-11.8531
▁$400,000	-11.8531
▁Renal	-11.8532
▁uncertain	-11.8533
▁Shaw	-11.8534
▁Borrelia	-11.8534
▁Ha	-11.8535
▁displacement	-11.8535
▁Amish	-11.8535
▁generalized	-11.8535
▁threatened	-11.8537
▁EKG	-11.8538
errazzo	-11.8539
▁Anything	-11.854
▁NOTE	-11.854
▁Bone	-11.8543
▁symmetry	-11.8545
▁demonstrated	-11.8545
▁homeostasis	-11.8547
▁Patent	-11.8547
▁finely	-11.8549
▁99%	-11.8549
▁CEA	-11.8549
▁compete	-11.8551
▁temporal	-11.8552
▁Submit	-11.8552
▁Basics	-11.8552
▁Lakes	-11.8553
▁waxy	-11.8553
▁Accounting	-11.8555
ik	-11.8555
▁Genus	-11.8559
▁acetaminophen	-11.8564
▁sandy	-11.8564
io	-11.8564
▁stocks	-11.8565
▁examined	-11.8565
▁Ready	-11.8565
aka	-11.8566
synthetic	-11.8566
▁Victorian	-11.8566
large	-11.8568
▁loving	-11.8573
▁metaphor	-11.8576
▁assurance	-11.8578
enters	-11.8578
▁flavoring	-11.8581
▁Someone	-11.8581
0.5°	-11.8583
▁Score	-11.8583
▁260	-11.8594
▁IS	-11.8597
▁Lost	-11.8598
▁indirectly	-11.86
▁wa	-11.8603
▁Operations	-11.8607
▁Move	-11.8607
▁personally	-11.8611
▁Girls	-11.8613
unit	-11.8621
▁im	-11.8622
▁ridges	-11.8623
endency	-11.8624
▁$300.	-11.8625
▁coordinates	-11.8629
▁ward	-11.863
▁peer	-11.863
▁aroma	-11.863
▁towers	-11.863
▁attorneys	-11.8632
▁compass	-11.8636
▁tops	-11.8637
▁Date	-11.8637
art	-11.8639
▁Count	-11.8641
▁grilling	-11.8642
▁Spirit	-11.8642
17	-11.8643
▁encounter	-11.8649
▁statutor	-11.8649
▁bilayer	-11.8654
GI	-11.8655
▁portfolio	-11.8655
▁chemist	-11.8656
▁Apache	-11.8657
▁transistor	-11.8658
▁essay	-11.8658
▁inherit	-11.8658
▁conference	-11.8659
▁Domain	-11.8659
▁acrylic	-11.8659
▁fragrance	-11.8661
▁enamel	-11.8661
▁vertebrate	-11.8663
▁jack	-11.8665
say	-11.8666
▁airplane	-11.8666
▁airway	-11.8669
▁pasture	-11.867
▁Jane	-11.8671
▁Silk	-11.8672
▁tremor	-11.8672
▁Electronic	-11.8673
▁boast	-11.8674
▁Rio	-11.8676
▁instruction	-11.8677
▁thermoplastic	-11.8682
▁predator	-11.8694
MRI	-11.8698
▁nephrons	-11.87
▁distributions	-11.8702
▁ports	-11.8705
▁commissions	-11.8708
▁$130	-11.8708
▁gates	-11.8709
▁placement	-11.871
TP	-11.8716
▁broke	-11.8717
▁Words	-11.8722
▁1.8	-11.8725
▁Wax	-11.873
▁Quartz	-11.8734
▁Komodo	-11.8735
▁Privacy	-11.8735
▁Kennedy	-11.8735
▁Madeira	-11.8735
▁licorice	-11.8735
▁gonorrhea	-11.8735
▁choroid	-11.8735
▁creativity	-11.8735
▁modulus	-11.8735
▁Respiration	-11.8735
▁cylindrical	-11.8735
▁enlargement	-11.8735
▁controversial	-11.8735
▁cocaine	-11.8735
▁Spinach	-11.8735
▁Albany	-11.8735
▁Prevention	-11.8735
▁genealogy	-11.8736
▁differentiation	-11.8736
▁congestion	-11.8736
▁worksheet	-11.8736
▁licensing	-11.8736
▁Avenue	-11.8736
▁alignment	-11.8737
▁theme	-11.8737
▁analyzing	-11.8738
compulsive	-11.8738
▁intelligent	-11.8738
▁quinoa	-11.8739
▁southwestern	-11.8739
▁Vinegar	-11.8739
▁prominence	-11.8739
▁Siding	-11.8739
▁brightest	-11.8739
▁zipper	-11.8739
Cal	-11.8739
▁anthropology	-11.8739
▁tricuspid	-11.874
▁Brussels	-11.874
RN	-11.874
▁exercising	-11.8741
▁disrupt	-11.8741
6.	-11.8741
▁experimental	-11.8741
▁inmate	-11.8741
▁farther	-11.8741
▁filtrate	-11.8741
▁Knowledge	-11.8742
▁imposed	-11.8742
▁manually	-11.8742
▁sustainable	-11.8742
|	-11.8743
▁initiation	-11.8743
▁burden	-11.8743
▁350°	-11.8745
▁benzene	-11.8747
▁atrophy	-11.8748
▁purity	-11.8748
▁1982	-11.875
▁ventral	-11.8751
6,	-11.8751
▁Cash	-11.8752
▁geology	-11.8752
▁approve	-11.8752
▁pear	-11.8753
▁considers	-11.8754
▁grinding	-11.8755
▁pollutants	-11.8756
▁Inca	-11.8758
▁Processing	-11.8759
▁61	-11.876
▁Things	-11.8761
▁Alpha	-11.8761
▁Enzymes	-11.8762
▁thalamus	-11.8764
▁switches	-11.8764
left	-11.8764
▁(15	-11.8767
▁Mason	-11.8768
▁uniquely	-11.877
▁stout	-11.877
▁painless	-11.877
▁satisfied	-11.8771
▁curing	-11.8773
▁Ring	-11.8774
▁sometime	-11.8774
▁encompass	-11.8775
sugar	-11.8775
▁Manu	-11.8777
▁rainy	-11.8779
▁mosses	-11.878
▁resist	-11.8781
▁skilled	-11.8789
▁nationally	-11.8799
▁Hz	-11.88
▁individually	-11.8803
▁sprinkler	-11.8803
▁innervate	-11.8806
uh	-11.881
▁Environment	-11.8811
▁esp	-11.8813
active	-11.8816
▁pumping	-11.8821
▁1943	-11.8822
▁tires	-11.8824
▁rig	-11.8825
atic	-11.8826
▁Tower	-11.8827
▁GS	-11.8828
▁safer	-11.8831
3,000	-11.8836
▁victim	-11.8836
▁Request	-11.8837
▁Inside	-11.8839
▁propriet	-11.884
▁phlegm	-11.884
▁Cause	-11.8842
ological	-11.8844
▁crowd	-11.8849
▁rupture	-11.8852
▁stigma	-11.8855
▁branching	-11.8857
ori	-11.8858
▁pronounce	-11.8858
▁$10.	-11.8858
▁Scale	-11.8859
▁adapter	-11.8859
▁lodging	-11.8864
▁Festival	-11.8867
▁revenues	-11.8869
▁eggplant	-11.887
▁transports	-11.8871
▁Strait	-11.8872
▁translocation	-11.8872
▁Comment	-11.8874
▁diode	-11.8875
▁enclosure	-11.8875
▁lipase	-11.8875
▁stride	-11.8875
▁pediatric	-11.8875
▁possession	-11.8876
▁anesthetic	-11.8877
▁drum	-11.8877
ery	-11.8878
▁Rich	-11.8878
▁Ren	-11.888
▁sponge	-11.8881
▁explosive	-11.8883
▁husk	-11.8884
ning	-11.8886
▁barriers	-11.8887
ntil	-11.8888
▁Means	-11.8888
▁Watt	-11.889
▁verbs	-11.8891
▁Compact	-11.8893
▁investor	-11.8894
▁Way	-11.8897
ese	-11.8897
▁CBC	-11.8901
▁handy	-11.8903
▁oriented	-11.8906
glucose	-11.891
▁LPN	-11.891
▁Planet	-11.8915
▁sear	-11.8923
▁XP	-11.8927
▁$110	-11.8929
▁verify	-11.8933
▁suburb	-11.8934
▁streets	-11.8935
▁decent	-11.8939
▁58	-11.894
▁5'	-11.8943
▁cod	-11.8944
▁bail	-11.8946
▁Ginseng	-11.8947
▁Platinum	-11.8947
▁arguably	-11.8947
▁sulphate	-11.8947
▁fenugreek	-11.8947
▁Hashimoto	-11.8947
▁Benjamin	-11.8947
▁glycocalyx	-11.8947
▁Lactobacillus	-11.8947
▁interchangeably	-11.8947
▁Duncan	-11.8948
▁Normandy	-11.8948
▁decomposition	-11.8948
▁Everest	-11.8948
party	-11.8948
▁Malta	-11.8948
▁Driving	-11.8949
▁recognizable	-11.8949
▁temporarily	-11.895
▁dilute	-11.8951
▁Merge	-11.8951
▁glutamate	-11.8951
▁JavaScript	-11.8952
▁facelift	-11.8952
▁tourism	-11.8952
▁scaly	-11.8952
▁GSM	-11.8952
▁begun	-11.8952
▁aids	-11.8952
HPV	-11.8953
celled	-11.8953
▁Left	-11.8953
▁personalized	-11.8954
head	-11.8954
▁Morgan	-11.8955
friendly	-11.8956
▁imagery	-11.8956
▁hematocrit	-11.8956
▁Property	-11.8956
▁multiplied	-11.8956
▁encryption	-11.8956
▁shale	-11.8956
▁cleft	-11.8957
▁LAN	-11.8957
▁amphibians	-11.8958
▁contributing	-11.8959
▁1989	-11.8959
▁singing	-11.8961
fallopian	-11.8961
▁micrometers	-11.8963
................	-11.8964
▁Speaker	-11.8964
▁Pink	-11.8964
▁Tools	-11.8965
▁bronze	-11.8965
▁Increased	-11.8966
▁breads	-11.8968
▁declined	-11.8969
under	-11.8976
▁sa	-11.8976
▁gloves	-11.8977
▁bottled	-11.8981
▁plastics	-11.8984
▁washed	-11.8985
▁Cool	-11.8986
▁imperial	-11.8991
▁occasions	-11.8992
▁addiction	-11.8994
▁crosses	-11.8996
▁Volcano	-11.8996
▁publicly	-11.8996
▁Allie	-11.8997
▁Logan	-11.8998
▁handles	-11.8999
▁(7	-11.9001
▁nests	-11.9005
▁Centers	-11.9012
Urge	-11.9016
▁Watts	-11.9017
▁ketones	-11.9017
▁splen	-11.902
▁Arts	-11.9026
▁adenosine	-11.9028
lo	-11.9028
▁yolks	-11.903
▁synonyms	-11.9034
▁cytosol	-11.9034
▁Stream	-11.9034
▁enabled	-11.9035
▁surge	-11.9036
▁750	-11.9036
▁Flower	-11.9044
▁constituents	-11.9044
▁PTH	-11.9045
▁alternatives	-11.9048
▁vibrations	-11.9049
▁hosting	-11.9054
▁hero	-11.9055
▁associates	-11.9056
▁IL	-11.906
▁(18	-11.9061
▁hind	-11.9062
▁impacts	-11.9064
▁additives	-11.9066
▁straw	-11.9066
▁pyramids	-11.9067
▁preschool	-11.9067
▁resides	-11.9068
▁Author	-11.9068
0,000	-11.9071
▁realistic	-11.9071
▁Treat	-11.9074
metals	-11.9076
▁Coconut	-11.9076
▁$22	-11.9084
natural	-11.9084
▁trimester	-11.9086
▁Practitioner	-11.9087
▁monument	-11.9087
▁Bihu	-11.9089
▁pupil	-11.9089
▁newspaper	-11.9089
▁vendor	-11.9089
▁feline	-11.909
▁Quick	-11.909
▁outpatient	-11.909
▁76	-11.9091
▁(9	-11.9092
▁hedge	-11.9092
▁observation	-11.9092
▁caterpillar	-11.9093
▁obligation	-11.9094
▁sauna	-11.9095
55	-11.9095
▁invertebrate	-11.9097
▁attitude	-11.9098
▁Metal	-11.91
▁Hispanic	-11.9101
▁tutorial	-11.9101
▁steroids	-11.9102
espiratory	-11.9104
▁Forces	-11.9104
▁intervention	-11.9105
▁polypeptide	-11.9106
▁0°	-11.9107
▁EE	-11.9108
▁dam	-11.9109
▁spur	-11.9109
▁pumpkin	-11.911
▁grace	-11.911
▁filler	-11.9111
ley	-11.9112
▁kilometer	-11.9114
▁asteroid	-11.9115
▁toast	-11.9116
▁graphic	-11.9116
▁ulcerati	-11.9116
▁155	-11.9118
▁impression	-11.9119
2,000	-11.9124
▁openings	-11.9124
▁3'	-11.9126
▁LED	-11.9128
▁merger	-11.9133
▁Levi	-11.9138
▁staying	-11.9139
▁1890	-11.914
▁Oak	-11.914
▁1600	-11.9141
▁Mean	-11.9143
▁Uruguay	-11.9143
gestational	-11.9146
▁fights	-11.9146
▁races	-11.9147
▁Andrea	-11.9147
▁ester	-11.9152
▁locus	-11.9158
▁impair	-11.9159
its	-11.9165
▁grief	-11.9165
▁Dublin	-11.9165
▁Jaundice	-11.9165
▁nanny	-11.9165
▁Accreditation	-11.9165
▁accreditation	-11.9165
▁Colombia	-11.9165
▁condensation	-11.9165
▁Holland	-11.9165
▁signing	-11.9165
▁raisins	-11.9165
▁colormap	-11.9166
▁Assembly	-11.9166
▁Reply	-11.9166
▁synonymous	-11.9166
▁transgenic	-11.9166
▁stopping	-11.9166
▁liberal	-11.9168
▁Reagan	-11.9169
▁redwood	-11.9169
▁wart	-11.9169
▁Aerobic	-11.9171
▁15,000	-11.9171
▁beech	-11.9171
▁highlight	-11.9171
▁accelerated	-11.9172
▁salted	-11.9173
▁Sprint	-11.9173
▁solitary	-11.9173
▁apparently	-11.9174
depth	-11.9174
▁remarkable	-11.9174
▁spay	-11.9174
▁dominance	-11.9174
▁Status	-11.9174
atif	-11.9175
▁mimic	-11.9175
▁Basel	-11.9175
▁FOR	-11.9176
▁Mass	-11.9176
▁unrelated	-11.9177
cutting	-11.9177
▁starring	-11.9178
▁periphery	-11.9178
▁Better	-11.9178
wikipedia	-11.9178
duty	-11.9179
-$3,000	-11.918
▁morphology	-11.9181
▁flammable	-11.9181
▁instantly	-11.9181
▁associations	-11.9182
▁Boy	-11.9183
▁Kelly	-11.9183
▁conquer	-11.9184
▁deleted	-11.9186
▁manga	-11.919
eliac	-11.9191
▁amended	-11.9191
▁Wheat	-11.9191
▁relies	-11.9194
▁realized	-11.9194
▁wetlands	-11.9194
▁Linux	-11.9196
▁40°	-11.9204
▁establishing	-11.9204
▁Hieroglyphics	-11.9204
▁freshly	-11.9205
▁ICD	-11.9206
▁positively	-11.9206
▁fixtures	-11.9207
▁Actor	-11.9208
▁Older	-11.9209
▁GABA	-11.9209
▁retired	-11.921
small	-11.9212
▁incorrect	-11.9212
▁technologists	-11.9212
▁savory	-11.9214
▁nm	-11.9216
▁proved	-11.9217
our	-11.9217
4,000	-11.9218
▁raccoons	-11.9219
▁verse	-11.922
▁lawns	-11.9221
▁Cream	-11.9221
-10	-11.9221
▁preservatives	-11.9222
▁Ra	-11.9223
▁MRSA	-11.9228
edu	-11.9229
▁97	-11.9229
▁Replace	-11.9229
▁specimens	-11.923
▁deferred	-11.923
▁vesicles	-11.923
▁BBB	-11.9232
▁spurs	-11.9234
▁[1]	-11.9237
▁beetles	-11.9239
▁Po	-11.9241
▁forums	-11.9246
▁190	-11.9249
▁1974	-11.925
▁reviewed	-11.9252
▁neuter	-11.9254
east	-11.9255
▁slows	-11.9255
▁intend	-11.9255
▁Resources	-11.9255
▁Workers	-11.9259
▁garnish	-11.9265
▁Visa	-11.9266
▁asteroids	-11.9267
00.	-11.9269
▁pr	-11.9273
▁fa	-11.9279
▁blockers	-11.9279
longside	-11.928
▁$75,000	-11.9281
▁Springs	-11.9281
lbs	-11.9282
▁Edwards	-11.9283
▁Fig	-11.9286
▁(0.3	-11.9287
▁Lo	-11.9287
▁reveals	-11.929
▁rolls	-11.929
▁apes	-11.929
▁shake	-11.9291
▁coding	-11.9292
▁profiles	-11.9294
▁Cup	-11.9296
▁electrodes	-11.9296
▁Appalachian	-11.9298
▁Route	-11.93
▁zebra	-11.9305
▁Reviews	-11.9309
▁Position	-11.9309
▁stalk	-11.931
▁scanner	-11.931
▁gecko	-11.9311
▁hurricane	-11.9311
▁Brick	-11.9311
▁converte	-11.9312
▁sedative	-11.9312
▁leaks	-11.9312
▁Surgeon	-11.9312
▁almond	-11.9313
▁Game	-11.9313
▁warrior	-11.9315
▁synonym	-11.9315
▁cabinet	-11.9316
▁transporting	-11.9316
▁beetle	-11.9317
▁fist	-11.9319
▁soybean	-11.932
▁13.5	-11.9321
▁notion	-11.9322
▁Euro	-11.9323
▁cigarette	-11.9325
▁dividend	-11.9326
▁shoot	-11.9327
1,000	-11.9327
▁selecting	-11.9329
▁controller	-11.9329
▁Lift	-11.9336
▁Teacher	-11.934
after	-11.9344
ough	-11.9344
▁CPU	-11.9345
▁$2,000.	-11.9345
▁salty	-11.9353
▁substitutes	-11.936
▁ferment	-11.9361
lasting	-11.9369
▁cons	-11.9371
▁Discover	-11.9373
membrane	-11.9373
▁murder	-11.9378
▁Song	-11.9381
▁mesoderm	-11.9382
▁eleven	-11.9382
Irish	-11.9384
▁autism	-11.9387
▁crazy	-11.9387
▁paracetamol	-11.9387
▁translucent	-11.9387
▁fibromyalgia	-11.9387
▁oximeter	-11.9387
▁Relevance	-11.9387
▁Unabridged	-11.9387
▁Thrace	-11.9387
▁yoga	-11.9387
▁Antibodies	-11.9387
▁Olivia	-11.9387
▁blurred	-11.9388
▁salaried	-11.9388
▁alkalosis	-11.9389
▁ivy	-11.9389
▁guilty	-11.939
skin	-11.939
▁flattened	-11.9391
▁practicing	-11.9391
▁Heinz	-11.9391
▁Ukraine	-11.9391
▁abnormality	-11.9391
▁duodenum	-11.9391
▁Sumatra	-11.9391
▁Confederacy	-11.9391
▁okay	-11.9391
▁irritability	-11.9391
▁tenure	-11.9391
▁cranberry	-11.9392
▁opposition	-11.9392
▁Moreover	-11.9392
▁Depression	-11.9392
▁Walker	-11.9392
▁Corporate	-11.9392
▁convection	-11.9393
▁prepaid	-11.9393
▁ignore	-11.9393
▁nonprofit	-11.9395
▁Eris	-11.9395
▁Equipment	-11.9396
▁Conference	-11.9396
▁norepinephrine	-11.9396
▁Diana	-11.9397
▁deceased	-11.9398
▁nationality	-11.9398
▁Cor	-11.9399
▁Technically	-11.94
▁myth	-11.9402
▁consciousness	-11.9402
▁tru	-11.9404
▁moderately	-11.9404
▁conjunctivitis	-11.9405
▁accurately	-11.9406
dimensional	-11.9407
▁portray	-11.9407
▁hydrated	-11.9407
▁literal	-11.9409
▁shaking	-11.941
▁hypoglycemia	-11.941
▁BSD	-11.941
▁macromolecules	-11.9411
▁artichokes	-11.9412
▁pushed	-11.9413
▁packs	-11.9413
▁remodeling	-11.9413
▁weakened	-11.9414
▁Peace	-11.9415
ga	-11.9415
▁internationally	-11.9419
ər	-11.942
▁Purple	-11.9424
▁hectares	-11.9425
▁currencies	-11.9425
▁Sources	-11.9426
alia	-11.9428
▁Employers	-11.943
▁Virtual	-11.943
▁precious	-11.9433
upper	-11.9433
▁erect	-11.9433
▁tilt	-11.9438
▁pests	-11.9438
▁sharks	-11.9441
▁sulfide	-11.9442
▁enhanced	-11.9442
▁spoke	-11.9442
▁ethical	-11.9444
-20	-11.9445
Mart	-11.9448
▁Shop	-11.9449
bony	-11.9451
▁saute	-11.9451
▁lifting	-11.9451
▁Convert	-11.9454
▁decking	-11.9456
▁HSV	-11.9456
▁cherry	-11.9457
▁taxi	-11.9457
▁Saturn	-11.9458
▁mounted	-11.9459
▁graphics	-11.9461
▁observations	-11.9463
▁Genes	-11.9468
▁Consult	-11.9471
▁Areas	-11.9475
▁seventh	-11.9475
5.	-11.9476
cancerous	-11.948
▁3.0	-11.948
▁Steel	-11.9482
▁blame	-11.9483
▁rolled	-11.9484
▁admin	-11.9484
new	-11.9485
weight	-11.9488
▁verbal	-11.9494
▁besides	-11.9497
oxygenated	-11.9498
▁$2.50	-11.9498
▁mistakes	-11.9499
▁formulas	-11.9506
▁swallow	-11.9508
▁publications	-11.9516
UK	-11.9518
▁$15.00	-11.9519
▁IBS	-11.952
▁accidents	-11.9523
▁couldn	-11.9524
▁thaw	-11.9526
▁batter	-11.9527
-4	-11.9527
▁summit	-11.9528
▁Programs	-11.9529
▁Grace	-11.953
▁replicate	-11.953
▁Cheese	-11.9533
▁Has	-11.9534
▁surfactant	-11.9534
▁emblem	-11.9535
▁cords	-11.9535
▁editor	-11.9535
▁19,	-11.9538
▁magnolia	-11.9538
▁2005.	-11.9538
▁pioneer	-11.9538
▁submarine	-11.9538
▁fireplace	-11.9539
▁antidepressant	-11.9539
▁Hip	-11.9539
▁veneer	-11.9539
▁consultant	-11.9539
▁Resource	-11.954
word	-11.9541
▁anemometer	-11.9541
▁Chihuahua	-11.9542
▁flank	-11.9542
▁celebration	-11.9543
▁grate	-11.9544
▁programme	-11.9544
▁Certificate	-11.9545
▁guardian	-11.9547
▁ghost	-11.9547
▁Cave	-11.9547
ore	-11.9548
▁stump	-11.9549
sodium	-11.9549
vascular	-11.955
▁termination	-11.9556
▁incubate	-11.9557
▁sleeve	-11.9559
▁(30	-11.9559
▁america	-11.9562
▁loads	-11.9563
▁hull	-11.9563
ile	-11.9565
▁Va	-11.9569
▁$17	-11.9572
▁$50.	-11.9575
▁oversee	-11.9576
▁ringing	-11.9577
▁Gum	-11.9578
▁requests	-11.9587
▁contracting	-11.9592
▁1,800	-11.9595
▁chromosom	-11.9598
▁ponds	-11.96
January	-11.9604
▁meetings	-11.9606
▁hydroxyl	-11.9606
building	-11.9607
▁wilderness	-11.9608
▁Pool	-11.9611
▁theoretical	-11.9611
▁vigorous	-11.9611
▁recreation	-11.9614
▁Dakota	-11.9614
▁saffron	-11.9614
▁Stadium	-11.9614
▁Hilton	-11.9614
▁kombucha	-11.9614
▁Capricorn	-11.9614
▁Fenugreek	-11.9614
▁Wagga	-11.9614
▁buffalo	-11.9614
▁Chamberlain	-11.9614
▁Version	-11.9614
▁Emergency	-11.9614
▁philosophical	-11.9614
▁mysterious	-11.9615
▁ratings	-11.9615
▁corruption	-11.9615
▁airtight	-11.9615
▁pungent	-11.9615
▁unclear	-11.9615
▁Recommended	-11.9616
▁shades	-11.9616
▁elimination	-11.9616
▁Recently	-11.9617
▁ban	-11.9617
▁ophthalmologist	-11.9617
▁breadcrumbs	-11.9617
▁lilies	-11.9617
▁agreements	-11.9618
▁rendered	-11.9618
▁Berkeley	-11.9619
▁Kitchen	-11.9619
▁laryngitis	-11.9619
▁graduating	-11.9619
▁Performance	-11.9619
▁fission	-11.9619
▁depicted	-11.9619
2-	-11.962
▁Brazilian	-11.962
▁Blake	-11.962
▁Bad	-11.962
▁artwork	-11.9621
plus	-11.9621
▁capability	-11.9621
▁folate	-11.9622
▁portable	-11.9622
▁defeated	-11.9623
▁arrangements	-11.9623
▁Supply	-11.9623
▁sesame	-11.9623
▁occupies	-11.9624
▁peritoneum	-11.9624
▁Transportation	-11.9625
▁Urine	-11.9625
▁Sudan	-11.9626
▁principally	-11.9626
▁ductless	-11.9626
▁turnover	-11.9627
▁Duke	-11.9627
▁Kim	-11.9628
▁extremities	-11.9628
▁Vascular	-11.9628
▁homozygous	-11.9628
▁Lanzarote	-11.9628
▁Whereas	-11.9628
▁silent	-11.9629
▁cleansing	-11.9629
▁holders	-11.963
▁Jean	-11.963
▁Vicodin	-11.9633
▁preliminar	-11.9633
▁globally	-11.9636
▁outlook	-11.9637
▁ISA	-11.9641
▁Bantu	-11.9642
▁carboxyl	-11.9642
▁Xbox	-11.9642
▁elite	-11.9646
▁glomerular	-11.9647
▁utilized	-11.9648
▁latex	-11.9649
▁whey	-11.9649
▁neutrophils	-11.965
▁Manassas	-11.9652
▁wh	-11.9652
▁Anatomy	-11.9652
▁pushing	-11.9652
▁Fever	-11.9653
▁twisted	-11.9654
▁Mayo	-11.9656
▁cracked	-11.9658
▁Dam	-11.9658
▁10-12	-11.9663
▁veto	-11.9666
▁survived	-11.9669
▁Heights	-11.9671
▁counselors	-11.9673
▁rim	-11.9674
▁owls	-11.9675
▁NAICS	-11.968
night	-11.968
▁veal	-11.9681
▁pods	-11.9682
▁supra	-11.9683
▁eliminat	-11.9685
▁analysts	-11.9686
▁carpeting	-11.9686
▁winding	-11.9688
▁coasts	-11.9696
▁Term	-11.9697
▁1901	-11.9698
▁crossed	-11.9702
heumatoid	-11.9702
▁8,000	-11.9703
▁SC	-11.9706
▁revolution	-11.9707
▁methyl	-11.971
▁breeders	-11.9718
▁connectors	-11.9722
ki	-11.9725
▁BTUs	-11.9728
▁Gene	-11.973
▁cooks	-11.9732
▁aerospace	-11.9732
▁43,560	-11.9736
▁loading	-11.9736
▁1909	-11.974
22	-11.9742
▁inadequate	-11.9743
ral	-11.9745
▁religions	-11.9747
▁Roof	-11.975
!).	-11.9751
▁dill	-11.9751
▁1).	-11.9752
▁derive	-11.9757
▁Slide	-11.9757
▁2.2	-11.9758
(1)	-11.9762
▁puzzle	-11.9764
▁Foot	-11.9767
▁Tech	-11.9768
▁proposition	-11.9768
cut	-11.9769
http	-11.977
▁endorsement	-11.977
lets	-11.977
▁subgroup	-11.9771
▁hats	-11.9772
▁alteration	-11.9772
▁antibacterial	-11.9772
RNA	-11.9773
▁1.6	-11.9775
▁lawsuit	-11.9775
▁Profile	-11.9775
▁analyst	-11.9775
▁Material	-11.9776
▁(24	-11.9776
▁Prison	-11.9778
▁backward	-11.9779
▁incur	-11.9779
27	-11.9781
lin	-11.9784
lecommunications	-11.9788
▁Levels	-11.9789
▁discounts	-11.979
▁barrel	-11.9791
Unless	-11.9791
▁melon	-11.9793
▁underside	-11.9794
How	-11.9796
approximately	-11.9798
▁merchandise	-11.9798
New	-11.98
▁Trees	-11.98
rinary	-11.9801
child	-11.9808
▁Austrian	-11.9811
▁aims	-11.9813
▁hybrids	-11.9814
▁cushion	-11.9815
bridge	-11.9817
▁lord	-11.9817
▁beside	-11.9819
▁feeder	-11.982
▁Model	-11.9821
▁platforms	-11.9824
▁agonist	-11.9831
▁gastro	-11.9836
rated	-11.9838
▁costly	-11.9838
▁appreciate	-11.9839
▁1985	-11.9841
▁marinate	-11.9842
▁gradual	-11.9844
▁Budget	-11.9847
▁welfare	-11.9847
▁Rebecca	-11.9847
▁Cayman	-11.9847
▁Melatonin	-11.9847
▁Eisenhower	-11.9847
▁Lieutenant	-11.9847
▁Madagascar	-11.9847
▁ketosis	-11.9847
▁cultivation	-11.9847
▁hygiene	-11.9847
▁electrophoresis	-11.9847
▁Minneapolis	-11.9847
▁whiplash	-11.9847
▁quadrant	-11.9847
▁mediastinum	-11.9847
▁Afghanistan	-11.9847
▁degeneration	-11.9848
▁juicy	-11.9848
▁Dosage	-11.9848
▁Ozone	-11.9848
▁Otherwise	-11.9848
▁validity	-11.9848
▁micrograms	-11.9848
▁barely	-11.985
▁domesticated	-11.985
▁Removal	-11.985
causing	-11.985
▁Patio	-11.9851
▁FBI	-11.9851
▁sweetness	-11.9851
▁Ecuador	-11.9851
▁Anthrax	-11.9852
▁Gestation	-11.9852
▁cytoskeleton	-11.9852
▁bronchitis	-11.9853
▁Interior	-11.9853
▁scoop	-11.9854
▁Analysis	-11.9854
nic	-11.9855
▁canvas	-11.9855
▁elect	-11.9856
▁jazz	-11.9856
▁courtesy	-11.9856
▁165°	-11.9856
▁citrate	-11.9856
▁routinely	-11.9857
▁geographically	-11.9857
▁halves	-11.9857
▁roaming	-11.9858
▁gallstones	-11.9859
▁Gaul	-11.9859
▁Pilgrims	-11.986
▁progresses	-11.9863
▁140°	-11.9864
▁ingested	-11.9864
▁organize	-11.9864
▁Declaration	-11.9866
▁Currency	-11.9866
▁bait	-11.9867
▁dirty	-11.9868
▁correction	-11.9869
▁7-10	-11.987
▁outlined	-11.987
▁tyrosine	-11.987
▁digging	-11.9871
▁Cleaning	-11.9871
don	-11.9873
HDL	-11.9874
▁adolescents	-11.9875
▁jungle	-11.9875
▁1966	-11.9878
▁87	-11.9879
▁privately	-11.988
▁grand	-11.988
▁evaluated	-11.9881
▁bloody	-11.9881
▁migrate	-11.9889
▁sp	-11.989
▁immigrants	-11.9891
▁SQL	-11.9892
▁staining	-11.9893
▁informal	-11.9894
▁ADD	-11.9895
▁Calvin	-11.9896
▁repetitive	-11.9899
▁concerning	-11.99
▁alike	-11.9901
▁Sports	-11.991
▁parameters	-11.9916
▁Wan	-11.9918
▁Fan	-11.9922
▁Walt	-11.9922
▁mesh	-11.9926
ya	-11.9928
get	-11.9929
tailed	-11.993
▁obligations	-11.9933
oluble	-11.9934
▁ro	-11.9937
▁Independent	-11.9939
▁cor	-11.994
▁AIDS	-11.9941
▁mixtures	-11.9945
▁announce	-11.9951
▁complexes	-11.9953
▁Rabbits	-11.9953
▁Custom	-11.9955
32	-11.9956
muscular	-11.9956
▁12,000	-11.996
▁Vitamins	-11.9961
▁allies	-11.9963
▁SE	-11.9966
▁repaired	-11.9968
▁baste	-11.9969
▁terminals	-11.9969
▁Individual	-11.9969
▁propel	-11.9973
au	-11.9977
health	-11.9978
▁boarding	-11.9981
▁Crab	-11.9983
▁pigments	-11.9986
▁regards	-11.9988
▁Pope	-11.9996
▁uptake	-11.9997
▁stamp	-11.9998
▁admissions	-11.9999
▁Housing	-12.0003
▁Am	-12.0003
▁notation	-12.0004
▁Protocol	-12.0007
▁prayer	-12.0007
▁malformation	-12.0007
▁73	-12.0007
▁submission	-12.0008
▁scenario	-12.0008
▁advertisement	-12.0009
▁savanna	-12.0011
▁carving	-12.0011
▁Enterprise	-12.0011
▁Marshall	-12.0013
▁79	-12.0013
▁Turtle	-12.0013
▁opiate	-12.0015
pressure	-12.0015
▁sin	-12.0018
▁Adrian	-12.002
▁subscription	-12.0021
▁Rule	-12.0021
above	-12.0022
▁Reference	-12.0023
▁cheek	-12.0025
▁insight	-12.0032
▁rocket	-12.0034
female	-12.0034
▁SSID	-12.0034
▁albums	-12.0036
▁Rim	-12.0036
▁CE	-12.0038
▁$40.	-12.0038
▁bearer	-12.004
▁shorten	-12.0045
▁eagle	-12.0052
▁districts	-12.0054
▁rods	-12.0054
▁$13,000	-12.0057
▁Algeria	-12.0057
group	-12.0058
▁whoop	-12.0059
▁pledge	-12.0059
▁broil	-12.0062
▁circles	-12.0066
▁71	-12.0068
NO	-12.0069
▁hook	-12.007
▁satisfy	-12.0071
▁Wild	-12.0071
▁135	-12.0077
▁subtle	-12.0078
▁refrigerate	-12.0078
▁4000	-12.0079
▁enormous	-12.0082
▁drunk	-12.0083
▁Magma	-12.0083
▁Boil	-12.0083
▁Jamaica	-12.0084
▁quantum	-12.0085
▁Carrara	-12.0085
▁Gallipoli	-12.0085
▁mellitus	-12.0085
▁impurities	-12.0085
▁Gettysburg	-12.0085
▁molybdenum	-12.0085
▁drowsiness	-12.0085
▁progesterone	-12.0085
▁vocabulary	-12.0085
▁memories	-12.0085
▁denoting	-12.0085
▁Defense	-12.0085
▁subsidy	-12.0085
▁aquiline	-12.0086
▁Manufacturing	-12.0086
▁Basal	-12.0087
▁numerical	-12.0087
▁coursework	-12.0088
▁Industries	-12.0088
▁midwife	-12.0088
▁prohibited	-12.0088
▁ZIP	-12.0089
▁Florence	-12.0089
▁integrity	-12.0089
▁Chernobyl	-12.0089
▁Emperor	-12.0089
▁bruising	-12.0089
▁Doxycycline	-12.0089
▁pancreatitis	-12.0089
▁Streptococcus	-12.0089
▁Countries	-12.009
▁glossary	-12.009
▁RCI	-12.009
▁Nashville	-12.0091
▁counsel	-12.0091
spite	-12.0093
▁UNESCO	-12.0094
▁metadata	-12.0094
▁Frequency	-12.0094
▁desk	-12.0094
▁Carter	-12.0095
purpose	-12.0095
▁incumbent	-12.0095
▁Sensory	-12.0096
▁herself	-12.0096
▁stationary	-12.0096
Old	-12.0098
▁confidence	-12.0099
▁tonsils	-12.0099
▁Squamous	-12.0099
▁latent	-12.01
▁computed	-12.01
▁youngest	-12.01
▁Ionic	-12.0102
postsynaptic	-12.0104
▁trick	-12.0105
▁firmly	-12.0106
▁swallowed	-12.0108
▁spotted	-12.0109
▁preheat	-12.0109
▁seedlings	-12.0112
▁owl	-12.0114
▁rashes	-12.0115
▁sardines	-12.0115
▁flagella	-12.0116
▁Ge	-12.0117
▁jumping	-12.0118
▁copay	-12.0118
▁returning	-12.0119
▁Cu	-12.0121
▁Hardie	-12.0127
▁historians	-12.0127
▁elephants	-12.0128
▁secured	-12.0131
human	-12.0131
▁Tropic	-12.0133
▁landforms	-12.0136
▁rope	-12.0137
▁Operation	-12.0139
▁comply	-12.0139
▁#2	-12.014
▁spam	-12.0142
lly	-12.0143
▁Diem	-12.0144
▁lo	-12.0144
50%	-12.0145
▁partition	-12.0145
▁hatched	-12.0148
▁kings	-12.0148
lower	-12.0149
▁Employees	-12.0151
An	-12.0152
▁Minerals	-12.0155
▁voters	-12.0159
▁devote	-12.0162
▁dash	-12.0163
order	-12.0168
▁endless	-12.0169
iliary	-12.0169
▁$5,000.	-12.0171
▁detecting	-12.0173
▁rRNA	-12.0174
file	-12.0176
600	-12.0186
▁axillary	-12.0187
▁7.5	-12.0187
▁rotates	-12.0189
▁Magnolia	-12.0191
mL	-12.0192
▁authors	-12.0195
▁stranded	-12.0197
▁$300,000	-12.0201
▁Cala	-12.0201
▁tracking	-12.0201
▁Core	-12.0205
ac	-12.0208
sea	-12.021
tu	-12.021
eurotransmitters	-12.0211
▁forum	-12.0211
▁bleed	-12.0214
▁Sky	-12.0216
▁Cake	-12.0225
▁peels	-12.0227
▁Su	-12.0227
▁Engine	-12.023
▁conventions	-12.0233
▁opioids	-12.0236
▁synthesize	-12.0236
▁numerator	-12.0239
▁Clerk	-12.0239
▁perfume	-12.024
▁collapse	-12.0242
▁Cod	-12.0242
▁Engineers	-12.0244
▁du	-12.0245
▁cinder	-12.0246
▁grammar	-12.0246
▁Sheet	-12.0252
▁1933	-12.0252
▁cucumber	-12.0253
▁complication	-12.0253
▁bees	-12.0254
four	-12.0254
▁bracket	-12.0254
▁adjunct	-12.0254
▁downward	-12.0257
▁paragraph	-12.0257
▁dessert	-12.0257
▁Pi	-12.0259
▁asks	-12.0259
▁hemorrhage	-12.0259
▁orthopedic	-12.0259
▁passion	-12.0261
▁trays	-12.0263
▁Females	-12.0263
▁retainer	-12.0264
▁UTIs	-12.0269
▁winner	-12.027
▁Ray	-12.0273
▁mu	-12.0274
▁coughs	-12.0277
▁specification	-12.0278
▁roller	-12.0279
▁swing	-12.0281
▁prince	-12.0284
▁transmits	-12.0284
▁Sciences	-12.0288
▁Prize	-12.0289
▁0.1	-12.0289
▁Slow	-12.029
4)	-12.029
▁Anna	-12.0291
▁RA	-12.0291
eastern	-12.0293
▁MO	-12.0296
▁ladder	-12.0298
▁1913	-12.0298
▁vents	-12.0302
▁24-	-12.0304
▁Applications	-12.0307
▁voter	-12.0308
▁ISP	-12.0309
▁snacks	-12.031
▁Priorit	-12.0311
▁bolt	-12.0312
▁Pepsi	-12.0321
May	-12.0323
▁Zinc	-12.0328
▁Niger	-12.0328
▁zodiac	-12.0329
▁dengue	-12.0329
▁Sumter	-12.0329
▁venison	-12.0329
▁Manitoba	-12.0329
▁Gallery	-12.0329
▁Erosion	-12.0329
▁Heavy	-12.0329
▁Hungarian	-12.0329
▁laboratories	-12.0329
▁litigation	-12.0329
▁Davy	-12.0329
▁Caspian	-12.0329
▁entries	-12.0329
▁lecithin	-12.0329
▁sophisticated	-12.0329
▁probation	-12.0329
▁Taylor	-12.0329
▁etymology	-12.0329
▁glucosamine	-12.0329
▁intercourse	-12.0329
▁mystery	-12.0329
▁Aphrodite	-12.0329
▁pivot	-12.0329
CSHP	-12.0329
▁dilation	-12.0329
▁Cocker	-12.033
▁Monthly	-12.033
▁topography	-12.033
▁stainless	-12.0331
▁urgent	-12.0331
▁Apollo	-12.0331
▁pacemaker	-12.0331
▁confirmation	-12.0331
HTP	-12.0331
▁economies	-12.0332
▁84	-12.0332
▁workforce	-12.0332
▁Polaris	-12.0333
▁disable	-12.0333
▁supreme	-12.0333
▁Gregory	-12.0333
▁oatmeal	-12.0333
▁Shigella	-12.0333
▁Sleep	-12.0333
▁cuboidal	-12.0333
▁warfarin	-12.0333
▁Teresa	-12.0333
▁Yorkshire	-12.0334
▁Alfred	-12.0334
▁Banksy	-12.0335
▁uranium	-12.0335
▁surety	-12.0335
▁weaned	-12.0336
▁Front	-12.0336
▁coniferous	-12.0336
▁bovine	-12.0336
▁65%	-12.0336
▁tungsten	-12.0337
▁Mental	-12.0338
▁syrinx	-12.0338
▁dormant	-12.0338
▁Wyoming	-12.0338
▁consecutive	-12.0338
▁myopia	-12.0338
▁graduation	-12.0339
▁emerging	-12.0339
▁unavailable	-12.0339
▁irritate	-12.034
▁Above	-12.0341
▁rotating	-12.0341
▁Salmon	-12.0343
▁Shield	-12.0343
▁Circuit	-12.0343
▁weaker	-12.0344
▁Carer	-12.0344
▁rigidity	-12.0344
ula	-12.0345
▁mortar	-12.0346
▁Wii	-12.0347
▁contamination	-12.0348
▁Dan	-12.0348
▁myeloma	-12.0348
▁motivated	-12.0348
▁98.6°	-12.0348
[...]
